{
  "version": "1.0",
  "truncation": null,
  "padding": null,
  "added_tokens": [
    {
      "id": 0,
      "content": "<|bos|>",
      "single_word": false,
      "lstrip": false,
      "rstrip": false,
      "normalized": false,
      "special": true
    },
    {
      "id": 1,
      "content": "<|eos|>",
      "single_word": false,
      "lstrip": false,
      "rstrip": false,
      "normalized": false,
      "special": true
    },
    {
      "id": 2,
      "content": "<|pad|>",
      "single_word": false,
      "lstrip": false,
      "rstrip": false,
      "normalized": false,
      "special": true
    },
    {
      "id": 3,
      "content": "<|unk|>",
      "single_word": false,
      "lstrip": false,
      "rstrip": false,
      "normalized": false,
      "special": true
    },
    {
      "id": 4,
      "content": "<|user|>",
      "single_word": false,
      "lstrip": false,
      "rstrip": false,
      "normalized": false,
      "special": true
    },
    {
      "id": 5,
      "content": "<|assistant|>",
      "single_word": false,
      "lstrip": false,
      "rstrip": false,
      "normalized": false,
      "special": true
    },
    {
      "id": 6,
      "content": "<|system|>",
      "single_word": false,
      "lstrip": false,
      "rstrip": false,
      "normalized": false,
      "special": true
    }
  ],
  "normalizer": null,
  "pre_tokenizer": {
    "type": "ByteLevel",
    "add_prefix_space": false,
    "trim_offsets": true,
    "use_regex": true
  },
  "post_processor": null,
  "decoder": {
    "type": "ByteLevel",
    "add_prefix_space": true,
    "trim_offsets": true,
    "use_regex": true
  },
  "model": {
    "type": "BPE",
    "dropout": null,
    "unk_token": "<|unk|>",
    "continuing_subword_prefix": null,
    "end_of_word_suffix": null,
    "fuse_unk": false,
    "byte_fallback": false,
    "ignore_merges": false,
    "vocab": {
      "<|bos|>": 0,
      "<|eos|>": 1,
      "<|pad|>": 2,
      "<|unk|>": 3,
      "<|user|>": 4,
      "<|assistant|>": 5,
      "<|system|>": 6,
      "!": 7,
      "\"": 8,
      "#": 9,
      "$": 10,
      "%": 11,
      "&": 12,
      "'": 13,
      "(": 14,
      ")": 15,
      "*": 16,
      "+": 17,
      ",": 18,
      "-": 19,
      ".": 20,
      "/": 21,
      "0": 22,
      "1": 23,
      "2": 24,
      "3": 25,
      "4": 26,
      "5": 27,
      "6": 28,
      "7": 29,
      "8": 30,
      "9": 31,
      ":": 32,
      ";": 33,
      "<": 34,
      "=": 35,
      ">": 36,
      "?": 37,
      "@": 38,
      "A": 39,
      "B": 40,
      "C": 41,
      "D": 42,
      "E": 43,
      "F": 44,
      "G": 45,
      "H": 46,
      "I": 47,
      "J": 48,
      "K": 49,
      "L": 50,
      "M": 51,
      "N": 52,
      "O": 53,
      "P": 54,
      "Q": 55,
      "R": 56,
      "S": 57,
      "T": 58,
      "U": 59,
      "V": 60,
      "W": 61,
      "X": 62,
      "Y": 63,
      "Z": 64,
      "[": 65,
      "\\": 66,
      "]": 67,
      "^": 68,
      "_": 69,
      "`": 70,
      "a": 71,
      "b": 72,
      "c": 73,
      "d": 74,
      "e": 75,
      "f": 76,
      "g": 77,
      "h": 78,
      "i": 79,
      "j": 80,
      "k": 81,
      "l": 82,
      "m": 83,
      "n": 84,
      "o": 85,
      "p": 86,
      "q": 87,
      "r": 88,
      "s": 89,
      "t": 90,
      "u": 91,
      "v": 92,
      "w": 93,
      "x": 94,
      "y": 95,
      "z": 96,
      "{": 97,
      "|": 98,
      "}": 99,
      "~": 100,
      "¡": 101,
      "¢": 102,
      "£": 103,
      "¤": 104,
      "¥": 105,
      "¦": 106,
      "§": 107,
      "¨": 108,
      "©": 109,
      "ª": 110,
      "«": 111,
      "¬": 112,
      "®": 113,
      "¯": 114,
      "°": 115,
      "±": 116,
      "²": 117,
      "³": 118,
      "´": 119,
      "µ": 120,
      "¶": 121,
      "·": 122,
      "¸": 123,
      "¹": 124,
      "º": 125,
      "»": 126,
      "¼": 127,
      "½": 128,
      "¾": 129,
      "¿": 130,
      "À": 131,
      "Á": 132,
      "Â": 133,
      "Ã": 134,
      "Ä": 135,
      "Å": 136,
      "Æ": 137,
      "Ç": 138,
      "È": 139,
      "É": 140,
      "Ê": 141,
      "Ë": 142,
      "Ì": 143,
      "Í": 144,
      "Î": 145,
      "Ï": 146,
      "Ð": 147,
      "Ñ": 148,
      "Ò": 149,
      "Ó": 150,
      "Ô": 151,
      "Õ": 152,
      "Ö": 153,
      "×": 154,
      "Ø": 155,
      "Ù": 156,
      "Ú": 157,
      "Û": 158,
      "Ü": 159,
      "Ý": 160,
      "Þ": 161,
      "ß": 162,
      "à": 163,
      "á": 164,
      "â": 165,
      "ã": 166,
      "ä": 167,
      "å": 168,
      "æ": 169,
      "ç": 170,
      "è": 171,
      "é": 172,
      "ê": 173,
      "ë": 174,
      "ì": 175,
      "í": 176,
      "î": 177,
      "ï": 178,
      "ð": 179,
      "ñ": 180,
      "ò": 181,
      "ó": 182,
      "ô": 183,
      "õ": 184,
      "ö": 185,
      "÷": 186,
      "ø": 187,
      "ù": 188,
      "ú": 189,
      "û": 190,
      "ü": 191,
      "ý": 192,
      "þ": 193,
      "ÿ": 194,
      "Ā": 195,
      "ā": 196,
      "Ă": 197,
      "ă": 198,
      "Ą": 199,
      "ą": 200,
      "Ć": 201,
      "ć": 202,
      "Ĉ": 203,
      "ĉ": 204,
      "Ċ": 205,
      "ċ": 206,
      "Č": 207,
      "č": 208,
      "Ď": 209,
      "ď": 210,
      "Đ": 211,
      "đ": 212,
      "Ē": 213,
      "ē": 214,
      "Ĕ": 215,
      "ĕ": 216,
      "Ė": 217,
      "ė": 218,
      "Ę": 219,
      "ę": 220,
      "Ě": 221,
      "ě": 222,
      "Ĝ": 223,
      "ĝ": 224,
      "Ğ": 225,
      "ğ": 226,
      "Ġ": 227,
      "ġ": 228,
      "Ģ": 229,
      "ģ": 230,
      "Ĥ": 231,
      "ĥ": 232,
      "Ħ": 233,
      "ħ": 234,
      "Ĩ": 235,
      "ĩ": 236,
      "Ī": 237,
      "ī": 238,
      "Ĭ": 239,
      "ĭ": 240,
      "Į": 241,
      "į": 242,
      "İ": 243,
      "ı": 244,
      "Ĳ": 245,
      "ĳ": 246,
      "Ĵ": 247,
      "ĵ": 248,
      "Ķ": 249,
      "ķ": 250,
      "ĸ": 251,
      "Ĺ": 252,
      "ĺ": 253,
      "Ļ": 254,
      "ļ": 255,
      "Ľ": 256,
      "ľ": 257,
      "Ŀ": 258,
      "ŀ": 259,
      "Ł": 260,
      "ł": 261,
      "Ń": 262,
      "Ġt": 263,
      "Ġa": 264,
      "he": 265,
      "in": 266,
      "re": 267,
      "on": 268,
      "Ġthe": 269,
      "Ġo": 270,
      "er": 271,
      "at": 272,
      "en": 273,
      "Ġc": 274,
      "ed": 275,
      "an": 276,
      "Ġs": 277,
      "it": 278,
      "Ġof": 279,
      "es": 280,
      "or": 281,
      "Ġp": 282,
      "is": 283,
      "al": 284,
      "Ġan": 285,
      "Ġin": 286,
      "ion": 287,
      "Ġf": 288,
      "Ġw": 289,
      "ar": 290,
      "Ġb": 291,
      "ing": 292,
      "Ġand": 293,
      "Ġto": 294,
      "Ġd": 295,
      "ent": 296,
      "ic": 297,
      "om": 298,
      "as": 299,
      "Ġre": 300,
      "ou": 301,
      "Ġm": 302,
      "ct": 303,
      "ĠC": 304,
      "Ġth": 305,
      "le": 306,
      "ro": 307,
      "Ġ1": 308,
      "Ġe": 309,
      "il": 310,
      "st": 311,
      "ĠT": 312,
      "Ġh": 313,
      "Ġn": 314,
      "ĠS": 315,
      "ce": 316,
      "ĠA": 317,
      "ur": 318,
      "ment": 319,
      "ation": 320,
      "ve": 321,
      "ly": 322,
      "id": 323,
      "Ġbe": 324,
      "se": 325,
      "Ġl": 326,
      "im": 327,
      "ot": 328,
      "Ġfor": 329,
      "Ġthat": 330,
      "omp": 331,
      "Ġcon": 332,
      "ut": 333,
      "ol": 334,
      "Ġ19": 335,
      "Ġis": 336,
      "ĠI": 337,
      "ate": 338,
      "ĠThe": 339,
      "Ġpro": 340,
      "et": 341,
      "Ġas": 342,
      "Ġon": 343,
      "ch": 344,
      "Ġu": 345,
      "Ġ(": 346,
      "Ġde": 347,
      "ri": 348,
      "Ġst": 349,
      "ĠP": 350,
      "pp": 351,
      "ers": 352,
      "ant": 353,
      "Ġ199": 354,
      "Ġsu": 355,
      "ĠM": 356,
      "Ġg": 357,
      "Ġor": 358,
      "qu": 359,
      "ĠD": 360,
      "ith": 361,
      "if": 362,
      "ow": 363,
      "her": 364,
      "âĢ": 365,
      "Ġv": 366,
      "any": 367,
      "ain": 368,
      "ul": 369,
      "ir": 370,
      "Ġex": 371,
      "ab": 372,
      "00": 373,
      "Ġby": 374,
      "Ġwith": 375,
      "ere": 376,
      "Ġit": 377,
      "nt": 378,
      "ad": 379,
      "ect": 380,
      "ompany": 381,
      "end": 382,
      "ll": 383,
      "ay": 384,
      "ĠF": 385,
      "nd": 386,
      "est": 387,
      "ig": 388,
      "Ġ2": 389,
      "ge": 390,
      "our": 391,
      "Ġwas": 392,
      "Ġnot": 393,
      "'s": 394,
      "ated": 395,
      "ver": 396,
      "ĠCompany": 397,
      "ĠB": 398,
      "Ġwh": 399,
      "res": 400,
      "ies": 401,
      "ĠR": 402,
      "ity": 403,
      "ess": 404,
      "ill": 405,
      "ial": 406,
      "ive": 407,
      "ist": 408,
      "ud": 409,
      "art": 410,
      "am": 411,
      "Ġat": 412,
      "Ġare": 413,
      "ĠN": 414,
      "ort": 415,
      "red": 416,
      "per": 417,
      "Ġinc": 418,
      "rom": 419,
      "Ġhe": 420,
      "os": 421,
      "Ġapp": 422,
      "Ġ3": 423,
      "ĠO": 424,
      "ld": 425,
      "ĠIn": 426,
      "ra": 427,
      "oc": 428,
      "us": 429,
      "ĠE": 430,
      "Ġint": 431,
      "iv": 432,
      "ĠW": 433,
      "Ġ$": 434,
      "ec": 435,
      "Ġfrom": 436,
      "Ġy": 437,
      "and": 438,
      "od": 439,
      "em": 440,
      "ĠH": 441,
      "pt": 442,
      "ourt": 443,
      "Ġsh": 444,
      "ber": 445,
      "ich": 446,
      "ff": 447,
      "Ġres": 448,
      "ĠL": 449,
      "ther": 450,
      "ions": 451,
      "ru": 452,
      "ĠSt": 453,
      "Ġad": 454,
      "ĠJ": 455,
      "cc": 456,
      "ip": 457,
      "du": 458,
      "um": 459,
      "ments": 460,
      "ear": 461,
      "able": 462,
      "Ġcont": 463,
      "Ġwhich": 464,
      "ase": 465,
      "Ġcomp": 466,
      "ac": 467,
      "omm": 468,
      "ount": 469,
      "ance": 470,
      "ard": 471,
      "ĠG": 472,
      "gh": 473,
      "ore": 474,
      "Ġthis": 475,
      "ary": 476,
      "Ġha": 477,
      "ations": 478,
      "th": 479,
      "lo": 480,
      "ition": 481,
      "ure": 482,
      "age": 483,
      "Ġits": 484,
      "Ġal": 485,
      "anc": 486,
      "Ġj": 487,
      "ue": 488,
      "Ġch": 489,
      "Ġper": 490,
      "act": 491,
      "ire": 492,
      "ice": 493,
      "ter": 494,
      "ust": 495,
      "ould": 496,
      "Ġr": 497,
      "vid": 498,
      "el": 499,
      "Ġle": 500,
      "Ġ\"": 501,
      "Ġhave": 502,
      "ew": 503,
      "âĢĻ": 504,
      "ree": 505,
      "Ġdis": 506,
      "Ġwe": 507,
      "Ġpl": 508,
      "Ġdef": 509,
      "nder": 510,
      "Ġag": 511,
      "ts": 512,
      "Ġcourt": 513,
      "orm": 514,
      "un": 515,
      "ans": 516,
      "iz": 517,
      "ĠDe": 518,
      "Ġpart": 519,
      "are": 520,
      "ence": 521,
      "Ġse": 522,
      "Ġhas": 523,
      "Ġexp": 524,
      "ome": 525,
      "ost": 526,
      "erv": 527,
      "Ġsub": 528,
      "ĠU": 529,
      "Ġfin": 530,
      "lud": 531,
      "Ġother": 532,
      "Ġwhe": 533,
      "all": 534,
      "Ġall": 535,
      "000": 536,
      "ict": 537,
      "ak": 538,
      "duct": 539,
      "ord": 540,
      "ally": 541,
      "ib": 542,
      "Ġyear": 543,
      "Ġunder": 544,
      "ens": 545,
      "li": 546,
      "Ġ4": 547,
      "Ġim": 548,
      "Ġacc": 549,
      "rou": 550,
      "Ġpr": 551,
      "Ġwere": 552,
      "Ġcons": 553,
      "erm": 554,
      "Ġam": 555,
      "ag": 556,
      "ock": 557,
      "ĠâĢ": 558,
      "ates": 559,
      "Ġrec": 560,
      "ities": 561,
      "Ġab": 562,
      "la": 563,
      "Ġhis": 564,
      "tain": 565,
      "Ġcomm": 566,
      ").": 567,
      "igh": 568,
      "Ġrequ": 569,
      "Ġany": 570,
      "Ġun": 571,
      "ous": 572,
      "ee": 573,
      "ign": 574,
      "ap": 575,
      "ased": 576,
      "Ġact": 577,
      "old": 578,
      "Ġwill": 579,
      "Ġoff": 580,
      "ine": 581,
      "mber": 582,
      "ult": 583,
      "Ġsuch": 584,
      "low": 585,
      "su": 586,
      "Ġsp": 587,
      "Ġ5": 588,
      "ark": 589,
      "ors": 590,
      "Ġhad": 591,
      "Ġstate": 592,
      "Ġrep": 593,
      "Ġpre": 594,
      "illion": 595,
      "og": 596,
      "use": 597,
      "ell": 598,
      "pon": 599,
      "ĠTh": 600,
      "ility": 601,
      "ĠRe": 602,
      "ail": 603,
      "ating": 604,
      "Ġar": 605,
      "iss": 606,
      "Ġbeen": 607,
      "Ġimp": 608,
      "Ġoper": 609,
      "so": 610,
      "ener": 611,
      "ater": 612,
      "form": 613,
      "Ġmillion": 614,
      "Ġpur": 615,
      "endant": 616,
      "Ġ31": 617,
      "rial": 618,
      "Ġinclud": 619,
      "Ġthere": 620,
      "ime": 621,
      "lic": 622,
      "ings": 623,
      "ancial": 624,
      "orp": 625,
      "Ġass": 626,
      "ific": 627,
      "ty": 628,
      "iff": 629,
      "Ġdo": 630,
      "Ġqu": 631,
      "ical": 632,
      "Ġcan": 633,
      "ach": 634,
      "aw": 635,
      "Ġ10": 636,
      "op": 637,
      "ĠDece": 638,
      "ven": 639,
      "out": 640,
      "Ġtr": 641,
      "Ġno": 642,
      "ĠDecember": 643,
      "istr": 644,
      "--": 645,
      "Ġprovid": 646,
      "ĠState": 647,
      "ual": 648,
      "Ġmay": 649,
      "Ġdec": 650,
      "ef": 651,
      "Ġus": 652,
      "Ġalso": 653,
      "Ġman": 654,
      "Ġappro": 655,
      "Ġtheir": 656,
      "Ġen": 657,
      "Ġserv": 658,
      "Ġinv": 659,
      "ory": 660,
      "uring": 661,
      "Ġ6": 662,
      "ffect": 663,
      "Ġdefendant": 664,
      "Ġ1997": 665,
      "Ġne": 666,
      "ract": 667,
      "mp": 668,
      "erest": 669,
      "Ġac": 670,
      "Ġtrial": 671,
      "19": 672,
      "ject": 673,
      "orpor": 674,
      "ied": 675,
      "ended": 676,
      "ong": 677,
      "ause": 678,
      "Ġrel": 679,
      "lect": 680,
      "Ġ1996": 681,
      "Ġadd": 682,
      "rib": 683,
      "Ġk": 684,
      "ted": 685,
      "Ġproduct": 686,
      "Ġref": 687,
      "),": 688,
      "Ġli": 689,
      "resent": 690,
      ".,": 691,
      "âĢĿ": 692,
      "ĠK": 693,
      "ork": 694,
      "ĠâĢľ": 695,
      "ose": 696,
      "irect": 697,
      "ited": 698,
      "Ġwould": 699,
      "ub": 700,
      "Ġreg": 701,
      "wn": 702,
      "hip": 703,
      "ĠV": 704,
      "ax": 705,
      "Ġ8": 706,
      "ices": 707,
      "ered": 708,
      "ĠAs": 709,
      "Ġone": 710,
      "TE": 711,
      "Ġout": 712,
      "its": 713,
      "eal": 714,
      "Ġ7": 715,
      "ast": 716,
      "Ġinterest": 717,
      "Ġtime": 718,
      "Ġind": 719,
      "ile": 720,
      "loy": 721,
      "ass": 722,
      "aint": 723,
      "Ġsal": 724,
      "ĠInc": 725,
      "ution": 726,
      "ĠCon": 727,
      "over": 728,
      "Ġdisc": 729,
      "Ġbec": 730,
      "oss": 731,
      "Ġob": 732,
      "Ġest": 733,
      "Ġ1998": 734,
      "Ġincre": 735,
      "arket": 736,
      "Ġent": 737,
      "ative": 738,
      "ank": 739,
      "ĠCourt": 740,
      "Ġproper": 741,
      "pect": 742,
      "ident": 743,
      "Ġfinancial": 744,
      "Ġthese": 745,
      "enc": 746,
      "Ġ-": 747,
      "ia": 748,
      "Ġcost": 749,
      "ertain": 750,
      "mploy": 751,
      "reement": 752,
      "ately": 753,
      "ang": 754,
      "ade": 755,
      "Ġbut": 756,
      "Ġso": 757,
      "Ġme": 758,
      "Ġevid": 759,
      "Ġtest": 760,
      "rough": 761,
      "Ġcase": 762,
      "ON": 763,
      "ollow": 764,
      "vi": 765,
      "ry": 766,
      "fter": 767,
      "Ġpay": 768,
      "der": 769,
      "ection": 770,
      "Ġover": 771,
      "ized": 772,
      "Ġval": 773,
      "ress": 774,
      "ĠWe": 775,
      "stru": 776,
      "Ġconc": 777,
      "erson": 778,
      "Ġ1995": 779,
      "ide": 780,
      "Ġyears": 781,
      "ĠNo": 782,
      "ey": 783,
      "ild": 784,
      "Ġthan": 785,
      "ĠComm": 786,
      "ight": 787,
      "Ġjud": 788,
      "ired": 789,
      "Ġthey": 790,
      "Ġfact": 791,
      "ital": 792,
      "Ġsupp": 793,
      "ision": 794,
      "Ġgener": 795,
      "Ġour": 796,
      "Ġ9": 797,
      "ame": 798,
      "Ġte": 799,
      "ack": 800,
      "Ġyou": 801,
      "Ġfollow": 802,
      "righ": 803,
      "ise": 804,
      "Ġmarket": 805,
      "Ġcas": 806,
      "laim": 807,
      "Ġevidence": 808,
      "Ġif": 809,
      "Ġatt": 810,
      "ĠCh": 811,
      "Ġamount": 812,
      "Ġlo": 813,
      "Ġdet": 814,
      "ern": 815,
      "tw": 816,
      "Ġmore": 817,
      "ĠÂ": 818,
      "Ġequ": 819,
      "ĠThis": 820,
      "ners": 821,
      "ense": 822,
      "Ġrem": 823,
      "Ġlaw": 824,
      "ĠEx": 825,
      "rant": 826,
      "Ġstock": 827,
      "Ġwhen": 828,
      "ĠIt": 829,
      "ange": 830,
      "lop": 831,
      "Ġsec": 832,
      "pos": 833,
      "fore": 834,
      "Ġ20": 835,
      "ption": 836,
      "iness": 837,
      "isc": 838,
      "ason": 839,
      "ĠUn": 840,
      "ury": 841,
      "Ġtw": 842,
      "Ġterm": 843,
      "yst": 844,
      "Ġemploy": 845,
      "Ġeffect": 846,
      "Ġown": 847,
      "velop": 848,
      "Ġinto": 849,
      "ents": 850,
      "inc": 851,
      "ily": 852,
      "aid": 853,
      "Ġclaim": 854,
      "Ġwho": 855,
      "irst": 856,
      "Ġ.": 857,
      "Ġrigh": 858,
      "oin": 859,
      "Ġtax": 860,
      "ound": 861,
      "hed": 862,
      "AN": 863,
      "ood": 864,
      "ĠPart": 865,
      "Ġfil": 866,
      "ified": 867,
      "ok": 868,
      "ake": 869,
      "av": 870,
      "Ġcap": 871,
      "stit": 872,
      "air": 873,
      "usiness": 874,
      "orn": 875,
      "ction": 876,
      "Ġthrough": 877,
      "ystem": 878,
      "xim": 879,
      "Ġtrans": 880,
      "Ġcl": 881,
      "nce": 882,
      "Ġher": 883,
      "arg": 884,
      "een": 885,
      "Ġnew": 886,
      "ond": 887,
      "Ġcertain": 888,
      "one": 889,
      "Ġaddition": 890,
      "Ġstat": 891,
      "Ġperson": 892,
      "Ġresult": 893,
      "rit": 894,
      "les": 895,
      "urre": 896,
      "ved": 897,
      "ough": 898,
      "ute": 899,
      "Ġrespect": 900,
      "Ġspec": 901,
      "Ġmot": 902,
      "IN": 903,
      "Ġnet": 904,
      "ĠPro": 905,
      "ER": 906,
      "ible": 907,
      "erc": 908,
      "Ġdes": 909,
      "Ġdirect": 910,
      "iod": 911,
      "ced": 912,
      "sel": 913,
      "Ġdevelop": 914,
      ".\"": 915,
      "Ġcould": 916,
      "ĠAn": 917,
      "Ġapproxim": 918,
      "aintiff": 919,
      "Ġmade": 920,
      "ish": 921,
      "Ġrece": 922,
      "Ġinform": 923,
      "Ġdid": 924,
      "Ġduring": 925,
      "agement": 926,
      "und": 927,
      "Ġtwo": 928,
      "Ġbusiness": 929,
      "Ġonly": 930,
      "10": 931,
      "Ġ198": 932,
      "Ġaccount": 933,
      "own": 934,
      "Ġbecause": 935,
      "Ġsign": 936,
      "ĠApp": 937,
      "Ġaut": 938,
      "ares": 939,
      "Ġasse": 940,
      "Ġincome": 941,
      "Ġ1999": 942,
      "Ġreason": 943,
      "ĠOn": 944,
      "gr": 945,
      "Ġperiod": 946,
      "Ġpresent": 947,
      "Ġsc": 948,
      "ever": 949,
      "ie": 950,
      "Ġdeterm": 951,
      "ĠY": 952,
      "ace": 953,
      "Ġ*": 954,
      "Ġeach": 955,
      "Ġwork": 956,
      "ures": 957,
      "erred": 958,
      "Ġstatements": 959,
      "Ġbetw": 960,
      "Ġbetween": 961,
      "gment": 962,
      "Ġpri": 963,
      "Ġset": 964,
      "Ġafter": 965,
      "ĠAm": 966,
      "Ġupon": 967,
      "Ġ[": 968,
      "EN": 969,
      "ffic": 970,
      "ph": 971,
      "cess": 972,
      "row": 973,
      "ees": 974,
      "Ġcust": 975,
      "Ġrecord": 976,
      "Ġapproximately": 977,
      "Ġacqu": 978,
      "Ġuse": 979,
      "ceed": 980,
      "Ġpol": 981,
      "Ġmon": 982,
      "ues": 983,
      "Ġcontract": 984,
      "Ġissu": 985,
      "Ġinvest": 986,
      "arch": 987,
      "Ġform": 988,
      "ational": 989,
      "Ġ12": 990,
      "Ġop": 991,
      "Ġ1994": 992,
      "ission": 993,
      "ite": 994,
      "Ġproducts": 995,
      "nership": 996,
      "Ġagain": 997,
      "Ġended": 998,
      "Ġsystem": 999,
      "ove": 1000,
      "Ġpurch": 1001,
      "olog": 1002,
      "ari": 1003,
      "Ġoperations": 1004,
      "erence": 1005,
      "Ġrequire": 1006,
      "ability": 1007,
      "led": 1008,
      "Ġconsid": 1009,
      "the": 1010,
      "Ġvalue": 1011,
      "arn": 1012,
      "ĠAg": 1013,
      "Ġdist": 1014,
      "olid": 1015,
      "Ġfirst": 1016,
      "mit": 1017,
      "Ġreport": 1018,
      "Ġshe": 1019,
      "Ġsales": 1020,
      "aterial": 1021,
      "Ġmat": 1022,
      "urn": 1023,
      "ublic": 1024,
      "port": 1025,
      "Ġshares": 1026,
      "irc": 1027,
      "Ġins": 1028,
      "ined": 1029,
      "Ġfiled": 1030,
      "Ġ30": 1031,
      "Ġhere": 1032,
      "Ġdiff": 1033,
      "Ġused": 1034,
      "Ġplaintiff": 1035,
      "Ġabout": 1036,
      "oard": 1037,
      "urance": 1038,
      "Ġinformation": 1039,
      "ĠAt": 1040,
      "Ġproperty": 1041,
      "oth": 1042,
      "ellant": 1043,
      "Ġorder": 1044,
      "ke": 1045,
      "ĠSu": 1046,
      "ays": 1047,
      "ĠAl": 1048,
      "cept": 1049,
      "AL": 1050,
      "Ġcommon": 1051,
      "ient": 1052,
      "Ġkn": 1053,
      "ex": 1054,
      "Ġshould": 1055,
      "Ġlim": 1056,
      "Ġbas": 1057,
      "enef": 1058,
      "orporation": 1059,
      "Ġdoes": 1060,
      "Ġappeal": 1061,
      "ward": 1062,
      "Ġmaterial": 1063,
      "Ġret": 1064,
      "ilities": 1065,
      "ĠÂ§": 1066,
      "gin": 1067,
      "urrent": 1068,
      "Ġbased": 1069,
      "Ġrespon": 1070,
      "ively": 1071,
      "ower": 1072,
      "Ġcosts": 1073,
      "Ġ200": 1074,
      "ĠStock": 1075,
      "ĠPl": 1076,
      "owever": 1077,
      "Ġcar": 1078,
      "Ġshare": 1079,
      "Ġleg": 1080,
      "Ġcash": 1081,
      "ys": 1082,
      "Ġgrant": 1083,
      "ont": 1084,
      "Ġdue": 1085,
      "Ġwhether": 1086,
      "reat": 1087,
      "Ġservices": 1088,
      "TI": 1089,
      "Ġext": 1090,
      "ĠFin": 1091,
      "hib": 1092,
      "ful": 1093,
      "ivid": 1094,
      "ness": 1095,
      "Ġarg": 1096,
      "Ġfac": 1097,
      "oun": 1098,
      "eb": 1099,
      "Ġincluding": 1100,
      "Ġassets": 1101,
      "Ġro": 1102,
      "ND": 1103,
      "Ġcustom": 1104,
      "Ġsupport": 1105,
      "OR": 1106,
      "ĠAr": 1107,
      "ret": 1108,
      "AR": 1109,
      "Ġthem": 1110,
      "incip": 1111,
      "Ġup": 1112,
      "iscal": 1113,
      "Ġagainst": 1114,
      "Ġwhere": 1115,
      "ages": 1116,
      "Ġloc": 1117,
      "Ġvi": 1118,
      "redit": 1119,
      "ving": 1120,
      "Ġfollowing": 1121,
      "Ġfind": 1122,
      "Ġmust": 1123,
      "Ġcol": 1124,
      "ĠMr": 1125,
      "Ġph": 1126,
      "Ġapplic": 1127,
      "Ġrequired": 1128,
      "lig": 1129,
      "Ġcontin": 1130,
      "hold": 1131,
      "Ġ13": 1132,
      "Ġsome": 1133,
      "Ġbeli": 1134,
      "ination": 1135,
      "hor": 1136,
      "Ġaff": 1137,
      "ĠSee": 1138,
      "Ġloss": 1139,
      "ATE": 1140,
      "Ġbenef": 1141,
      "ances": 1142,
      "Ġthose": 1143,
      "__": 1144,
      "ix": 1145,
      "ert": 1146,
      "Ġbefore": 1147,
      "olidated": 1148,
      "ES": 1149,
      "chn": 1150,
      "Ġsubject": 1151,
      "Ġnum": 1152,
      "Ġwell": 1153,
      "Ġchild": 1154,
      "Ġregul": 1155,
      "Ġjudgment": 1156,
      "Ġev": 1157,
      "oci": 1158,
      "Ġyour": 1159,
      "Ġcapital": 1160,
      "Ġjury": 1161,
      "enses": 1162,
      "Ġhim": 1163,
      "ribut": 1164,
      "20": 1165,
      "pr": 1166,
      "anding": 1167,
      "Ġcond": 1168,
      "ember": 1169,
      "ĠCo": 1170,
      "ep": 1171,
      "Ġdep": 1172,
      "ck": 1173,
      "Ġmin": 1174,
      "son": 1175,
      "ian": 1176,
      "sid": 1177,
      "ĠReg": 1178,
      "ner": 1179,
      "Ġagreement": 1180,
      "Ġprincip": 1181,
      "err": 1182,
      "ife": 1183,
      "Ġreceiv": 1184,
      "Ġhold": 1185,
      "Ġ15": 1186,
      "etition": 1187,
      "ults": 1188,
      "arily": 1189,
      "Ġfiscal": 1190,
      "Ġprim": 1191,
      "ĠPartnership": 1192,
      "urities": 1193,
      "ony": 1194,
      "ĠSe": 1195,
      "Ġrelated": 1196,
      "stant": 1197,
      "ves": 1198,
      "Ġbelie": 1199,
      "itions": 1200,
      "istrict": 1201,
      "vis": 1202,
      "vel": 1203,
      "Ġrate": 1204,
      "Ġ11": 1205,
      "ric": 1206,
      "ces": 1207,
      "Ġmet": 1208,
      "Ġproceed": 1209,
      "Ġright": 1210,
      "Ġfail": 1211,
      "Ġcurrent": 1212,
      "leg": 1213,
      "Ġav": 1214,
      "ĠAgreement": 1215,
      "eop": 1216,
      "arge": 1217,
      "ĠInt": 1218,
      "eral": 1219,
      "Ġcount": 1220,
      "Ġthree": 1221,
      "ĠNot": 1222,
      "ially": 1223,
      "Ġpublic": 1224,
      "tal": 1225,
      "Ġquest": 1226,
      "une": 1227,
      "ince": 1228,
      "Ġnon": 1229,
      "Ġreven": 1230,
      "lement": 1231,
      "Ġgu": 1232,
      "inion": 1233,
      "icip": 1234,
      "ases": 1235,
      "TS": 1236,
      "Ġmanagement": 1237,
      "view": 1238,
      "Ġmotion": 1239,
      "oint": 1240,
      "Ġcirc": 1241,
      "ĠBank": 1242,
      "ĠAct": 1243,
      "Ġauthor": 1244,
      "Ġinter": 1245,
      "----": 1246,
      "ĠThere": 1247,
      "Ġaction": 1248,
      "Ġfound": 1249,
      "Ġheld": 1250,
      "sue": 1251,
      "ros": 1252,
      "Ġthen": 1253,
      "anu": 1254,
      "Ġsee": 1255,
      "Ġoffic": 1256,
      "ĠForm": 1257,
      "Ġvari": 1258,
      "andard": 1259,
      "Ġneed": 1260,
      "ath": 1261,
      "Ġdate": 1262,
      "ĠHe": 1263,
      "stitution": 1264,
      "abl": 1265,
      "fact": 1266,
      "ptions": 1267,
      "rust": 1268,
      "ĠAND": 1269,
      "Ġ&": 1270,
      "ĠInd": 1271,
      "te": 1272,
      "Ġshall": 1273,
      "Ġra": 1274,
      "Ġprocess": 1275,
      "uture": 1276,
      "round": 1277,
      "ends": 1278,
      "Ġallow": 1279,
      ".âĢĿ": 1280,
      "Ġsame": 1281,
      "ature": 1282,
      "Ġoperating": 1283,
      "Ġincrease": 1284,
      "50": 1285,
      "man": 1286,
      "11": 1287,
      "ren": 1288,
      "ants": 1289,
      "Ġwithin": 1290,
      "Ġbasis": 1291,
      "Ġinstru": 1292,
      "irm": 1293,
      "Ġ1993": 1294,
      "ificant": 1295,
      "Ġtotal": 1296,
      "peri": 1297,
      "ĠOF": 1298,
      "Ġreference": 1299,
      "Ġocc": 1300,
      "Ġprior": 1301,
      "gram": 1302,
      "iction": 1303,
      "eople": 1304,
      "Ġ(\"": 1305,
      "ĠAcc": 1306,
      "sidi": 1307,
      "Ġboth": 1308,
      "gan": 1309,
      "ĠUnited": 1310,
      "aring": 1311,
      "hen": 1312,
      "ecut": 1313,
      "orporated": 1314,
      "ĠSo": 1315,
      "Ġconv": 1316,
      "Ġ18": 1317,
      "ular": 1318,
      "Ġprob": 1319,
      "arm": 1320,
      "isk": 1321,
      "urther": 1322,
      "Ġwithout": 1323,
      "Ġru": 1324,
      "overn": 1325,
      "Ġfuture": 1326,
      "Ġco": 1327,
      "Ġcomple": 1328,
      "ĠMarch": 1329,
      "ĠBoard": 1330,
      "12": 1331,
      "io": 1332,
      "cent": 1333,
      "Ġlong": 1334,
      "Ġinf": 1335,
      "Ġplan": 1336,
      "min": 1337,
      "ĠJune": 1338,
      "Ġcr": 1339,
      "Ġissue": 1340,
      "ĠSec": 1341,
      "orney": 1342,
      "ĠFor": 1343,
      "less": 1344,
      "Ġver": 1345,
      "Ġtechn": 1346,
      "Ġsim": 1347,
      "anuary": 1348,
      "Ġincreased": 1349,
      "Ġmake": 1350,
      "aj": 1351,
      "standing": 1352,
      "ober": 1353,
      "Ġreview": 1354,
      "amp": 1355,
      "Ġrest": 1356,
      "ob": 1357,
      "Ġsignificant": 1358,
      "Ġrepresent": 1359,
      "Ġestabl": 1360,
      "ĠJanuary": 1361,
      "Ġprovide": 1362,
      "Ġelect": 1363,
      "Ġmost": 1364,
      "Ġ14": 1365,
      "ind": 1366,
      "con": 1367,
      "Ġfund": 1368,
      "lus": 1369,
      "ĠCorporation": 1370,
      "Ġresults": 1371,
      "ĠFinancial": 1372,
      "ĠAd": 1373,
      "ished": 1374,
      "Ġopinion": 1375,
      "bt": 1376,
      "Ġcontro": 1377,
      "CI": 1378,
      "ared": 1379,
      "Ġhigh": 1380,
      "ederal": 1381,
      "Ġbu": 1382,
      "Ġservice": 1383,
      "ization": 1384,
      "Ġestim": 1385,
      "Ġadditional": 1386,
      "arter": 1387,
      "Ġexist": 1388,
      "ify": 1389,
      "Ġcredit": 1390,
      "Ġnumber": 1391,
      "ines": 1392,
      "ention": 1393,
      "Ġwrit": 1394,
      "itt": 1395,
      "ering": 1396,
      "Ġwhat": 1397,
      "ecess": 1398,
      "Ġperform": 1399,
      "yp": 1400,
      "Ġstud": 1401,
      "ross": 1402,
      "Ġann": 1403,
      "Ġden": 1404,
      "Ġbeing": 1405,
      "mitted": 1406,
      "Ġsent": 1407,
      "Ġfair": 1408,
      "ĠStates": 1409,
      "Ġavail": 1410,
      "Ġdevelopment": 1411,
      "Ġerr": 1412,
      "MEN": 1413,
      "hibit": 1414,
      "Ġca": 1415,
      "ounsel": 1416,
      "Ġactiv": 1417,
      "Ġreal": 1418,
      "Ġgeneral": 1419,
      "ĠCommon": 1420,
      "Ġconf": 1421,
      "Ġappellant": 1422,
      "ĠWh": 1423,
      "Ġmonth": 1424,
      "ug": 1425,
      "ten": 1426,
      "ĠThese": 1427,
      "Ġprovided": 1428,
      "ency": 1429,
      "ogn": 1430,
      "roup": 1431,
      "ata": 1432,
      "Ġfe": 1433,
      "ather": 1434,
      "Ġprice": 1435,
      "Ġpos": 1436,
      "13": 1437,
      "imin": 1438,
      "Ġsubsidi": 1439,
      "ĠGener": 1440,
      "AS": 1441,
      "Ġless": 1442,
      "Ġpolic": 1443,
      "Ġexpenses": 1444,
      "Ġpurchase": 1445,
      "Ġ197": 1446,
      "ĠSh": 1447,
      "Ġdated": 1448,
      "ajor": 1449,
      "Ġinvol": 1450,
      "suant": 1451,
      "Ġrisk": 1452,
      "ĠRes": 1453,
      "miss": 1454,
      "ED": 1455,
      "ĠRegistr": 1456,
      "ensation": 1457,
      "Ġposs": 1458,
      "Ġpres": 1459,
      "Ġpercent": 1460,
      "Ġport": 1461,
      "IS": 1462,
      "Ġstatute": 1463,
      "Ġshow": 1464,
      "ained": 1465,
      "Ġalleg": 1466,
      "Ġprogram": 1467,
      "ĠDirect": 1468,
      "Ġinj": 1469,
      "Ġbank": 1470,
      "uly": 1471,
      "ool": 1472,
      "used": 1473,
      "Ġfore": 1474,
      "Ġsaid": 1475,
      "Ġcle": 1476,
      ");": 1477,
      "Ġmod": 1478,
      "ĠSept": 1479,
      "Ġmanu": 1480,
      "uss": 1481,
      "ĠNew": 1482,
      "Ġpat": 1483,
      "ick": 1484,
      "Ġrespectively": 1485,
      "ird": 1486,
      "Ġmed": 1487,
      "of": 1488,
      "Ġprovides": 1489,
      "Ġquestion": 1490,
      "Ġargu": 1491,
      "aining": 1492,
      "Ġmanufact": 1493,
      "Ġ16": 1494,
      "Ġful": 1495,
      "atory": 1496,
      "me": 1497,
      "ĠSeptember": 1498,
      "Ġparties": 1499,
      "Ġinclude": 1500,
      "Ġmain": 1501,
      "Ġsubstant": 1502,
      "als": 1503,
      "Ġmajor": 1504,
      "Ġstr": 1505,
      "ĠIf": 1506,
      "15": 1507,
      "Ġlike": 1508,
      "ĠPlan": 1509,
      "Ġdiffere": 1510,
      "ology": 1511,
      "Ġcom": 1512,
      "ĠMan": 1513,
      "ĠST": 1514,
      "aries": 1515,
      "Ġconduct": 1516,
      "Ġaud": 1517,
      "ft": 1518,
      "Ġcause": 1519,
      "Ġsur": 1520,
      "TION": 1521,
      "vision": 1522,
      "Ġsale": 1523,
      "Ġincluded": 1524,
      "Ġgenerally": 1525,
      "ics": 1526,
      "Ġrights": 1527,
      "eric": 1528,
      "arly": 1529,
      "Ġstandard": 1530,
      "Ġcharg": 1531,
      "14": 1532,
      "ties": 1533,
      "Ġcompany": 1534,
      "hes": 1535,
      "Ġprimarily": 1536,
      "ipment": 1537,
      "Ġsum": 1538,
      "ĠCount": 1539,
      "Ġexerc": 1540,
      "ives": 1541,
      "Ġexpect": 1542,
      "\")": 1543,
      "other": 1544,
      "Ġviol": 1545,
      "land": 1546,
      "ĠGeneral": 1547,
      "Ġdesign": 1548,
      "Ġpaid": 1549,
      "Ġdam": 1550,
      "ither": 1551,
      "imony": 1552,
      "ending": 1553,
      "oh": 1554,
      "Ġconsider": 1555,
      "alth": 1556,
      "ural": 1557,
      "Ġconsist": 1558,
      "verse": 1559,
      "Ġclaims": 1560,
      "Ġprot": 1561,
      "Ġ25": 1562,
      "Ġ17": 1563,
      "Ġchang": 1564,
      "Ġsince": 1565,
      "Ġavailable": 1566,
      "OL": 1567,
      "Ġgovern": 1568,
      "Ġneg": 1569,
      "ĠIN": 1570,
      "Ġimpro": 1571,
      "holders": 1572,
      "Ġpetition": 1573,
      "Ġcounsel": 1574,
      "ured": 1575,
      "ink": 1576,
      "Ġterms": 1577,
      "part": 1578,
      "Ġagree": 1579,
      "aking": 1580,
      "Ġindu": 1581,
      "Ġconstru": 1582,
      "not": 1583,
      "ize": 1584,
      "ton": 1585,
      "Ġrecogn": 1586,
      "ĠPres": 1587,
      "ecutive": 1588,
      "18": 1589,
      "Ġspecific": 1590,
      "ĠReport": 1591,
      "Ġjur": 1592,
      "Ġnecess": 1593,
      "Ġloans": 1594,
      "ĠComp": 1595,
      "Ġconsolidated": 1596,
      "very": 1597,
      "16": 1598,
      "Ġcompet": 1599,
      "Ġbr": 1600,
      "Ġjust": 1601,
      "pre": 1602,
      "Ġparty": 1603,
      "ically": 1604,
      "Ġstatement": 1605,
      "..": 1606,
      "ently": 1607,
      "Ġunt": 1608,
      "Ġdem": 1609,
      "Ġknow": 1610,
      "Ġprof": 1611,
      "Ġlevel": 1612,
      "ĠLe": 1613,
      "ĠMay": 1614,
      "Ġfurther": 1615,
      "isl": 1616,
      "Ġregard": 1617,
      "ording": 1618,
      "Ġissued": 1619,
      "Ġdecision": 1620,
      "Ġacquis": 1621,
      "Ġindic": 1622,
      "gy": 1623,
      "ĠCal": 1624,
      "change": 1625,
      "ously": 1626,
      "ministr": 1627,
      "itive": 1628,
      "Ġcre": 1629,
      "Ġoptions": 1630,
      "IC": 1631,
      "Ġamounts": 1632,
      "Ġinsurance": 1633,
      "reg": 1634,
      "ety": 1635,
      "Ġmany": 1636,
      "Ġtestimony": 1637,
      "ĠCl": 1638,
      "arent": 1639,
      "Ġsection": 1640,
      "ĠAll": 1641,
      "Ġconn": 1642,
      "Ġhealth": 1643,
      "Ġrequirements": 1644,
      "ode": 1645,
      "Ġland": 1646,
      "ID": 1647,
      "Ġcustomers": 1648,
      "25": 1649,
      "Ġeven": 1650,
      "fficient": 1651,
      "ci": 1652,
      "onment": 1653,
      "ĠOct": 1654,
      "rigin": 1655,
      "Ġsystems": 1656,
      "ins": 1657,
      "Ġloan": 1658,
      "ĠPresident": 1659,
      "Ġindust": 1660,
      "Ġcall": 1661,
      "though": 1662,
      "ĠAmeric": 1663,
      "Ġcor": 1664,
      "Ġcases": 1665,
      "hod": 1666,
      "ger": 1667,
      "17": 1668,
      "ains": 1669,
      "iven": 1670,
      "gage": 1671,
      "Ġstated": 1672,
      "Ġequipment": 1673,
      "sequ": 1674,
      "EC": 1675,
      "Ġtyp": 1676,
      "ibility": 1677,
      "ouse": 1678,
      "ĠOctober": 1679,
      "to": 1680,
      "ash": 1681,
      "ting": 1682,
      "par": 1683,
      "for": 1684,
      "Ġcare": 1685,
      "crib": 1686,
      "Ġclass": 1687,
      "pri": 1688,
      "ession": 1689,
      "ĠHowever": 1690,
      "ĠCounty": 1691,
      "ody": 1692,
      "ĠCO": 1693,
      "Ġredu": 1694,
      "Ġattorney": 1695,
      "Ġgo": 1696,
      "Ġexc": 1697,
      "Ġ28": 1698,
      "ĠAss": 1699,
      "lied": 1700,
      "verage": 1701,
      "Ġaffect": 1702,
      "ning": 1703,
      "urred": 1704,
      "Ġreasonable": 1705,
      "Ġwhile": 1706,
      "Ġord": 1707,
      "ons": 1708,
      "sec": 1709,
      "Ġpeople": 1710,
      "ĠFeb": 1711,
      "Ġident": 1712,
      "Ġsecond": 1713,
      "vers": 1714,
      "IT": 1715,
      "ruary": 1716,
      "tern": 1717,
      "Ġabove": 1718,
      "Ġrevenues": 1719,
      "ferred": 1720,
      "Ġearn": 1721,
      "30": 1722,
      "Ġobtain": 1723,
      "stances": 1724,
      "Ġlife": 1725,
      "Ġentered": 1726,
      "ires": 1727,
      "ĠJuly": 1728,
      "ĠFebruary": 1729,
      "Ġuntil": 1730,
      "Ġorigin": 1731,
      "Ġoutstanding": 1732,
      "ually": 1733,
      "Ġreceived": 1734,
      "ĠCons": 1735,
      "anies": 1736,
      "Ġrates": 1737,
      "Ġquarter": 1738,
      "Ġemployees": 1739,
      "Ġdebt": 1740,
      "ĠTH": 1741,
      "Ġrul": 1742,
      "af": 1743,
      "urity": 1744,
      "ading": 1745,
      "Ġsever": 1746,
      "pril": 1747,
      "Ġ24": 1748,
      "vir": 1749,
      "Ġmethod": 1750,
      "Ġdecre": 1751,
      "Ġstatut": 1752,
      "ĠÂ¶": 1753,
      "Ġdifferent": 1754,
      "ality": 1755,
      "ield": 1756,
      "orth": 1757,
      "ĠApril": 1758,
      "up": 1759,
      "Ġpower": 1760,
      "Ġ2000": 1761,
      "ars": 1762,
      "Ġbal": 1763,
      "Ġrese": 1764,
      "Ġlic": 1765,
      "Ġcommun": 1766,
      "line": 1767,
      "UR": 1768,
      "Ġobject": 1769,
      "Ġrule": 1770,
      "Ġadv": 1771,
      "Ġcontrol": 1772,
      "ivers": 1773,
      "Ġusing": 1774,
      "ĠCol": 1775,
      "chool": 1776,
      "Ġoblig": 1777,
      "Ġvarious": 1778,
      "Ġgranted": 1779,
      "osed": 1780,
      "Ġgood": 1781,
      "Ġcircum": 1782,
      "raph": 1783,
      "ribution": 1784,
      "ification": 1785,
      "ĠCommission": 1786,
      "orld": 1787,
      "Ġconclud": 1788,
      "ator": 1789,
      "ĠAnn": 1790,
      "ential": 1791,
      "Ġindivid": 1792,
      "Ġlimited": 1793,
      "Ġ27": 1794,
      "Ġrele": 1795,
      "Ġhowever": 1796,
      "Ġhearing": 1797,
      "Ġaccept": 1798,
      "Ġexpense": 1799,
      "ili": 1800,
      "itness": 1801,
      "Ġtransact": 1802,
      "Ġtra": 1803,
      "Ġcent": 1804,
      "Ġdata": 1805,
      "ued": 1806,
      "Ġ23": 1807,
      "uc": 1808,
      "Ġpursuant": 1809,
      "Ġbro": 1810,
      "Ġado": 1811,
      "Ġhow": 1812,
      "lp": 1813,
      "ask": 1814,
      "Ġwater": 1815,
      "Ġpolicy": 1816,
      "Ġsumm": 1817,
      "Ġrequest": 1818,
      "ale": 1819,
      "abilities": 1820,
      "Ġchange": 1821,
      "rop": 1822,
      "Ġend": 1823,
      "icle": 1824,
      "ior": 1825,
      "Ġmeet": 1826,
      ".)": 1827,
      "ĠAug": 1828,
      "ised": 1829,
      "ĠRE": 1830,
      "Ġexperi": 1831,
      "ĠSTATE": 1832,
      "ĠRegistrant": 1833,
      "Ġ29": 1834,
      "ĠMc": 1835,
      "Ġmer": 1836,
      "Ġadj": 1837,
      "Ġflow": 1838,
      "ĠNove": 1839,
      "Ġwar": 1840,
      "ĠAugust": 1841,
      "Ġsm": 1842,
      "ii": 1843,
      "ĠNovember": 1844,
      "Ġassoci": 1845,
      "ĠStatement": 1846,
      "Ġrespons": 1847,
      "Ġinit": 1848,
      "Ġ26": 1849,
      "ron": 1850,
      "Ġdiscuss": 1851,
      "Ġhelp": 1852,
      "Ġcompl": 1853,
      "Ġbelieves": 1854,
      "Ġ1992": 1855,
      "Ġmaintain": 1856,
      "Ġherein": 1857,
      "ĠQ": 1858,
      "ources": 1859,
      "Ġpartic": 1860,
      "Ġincorporated": 1861,
      "ĠDistrict": 1862,
      "vironment": 1863,
      "empt": 1864,
      "Ġbo": 1865,
      "emp": 1866,
      "elle": 1867,
      "Ġfees": 1868,
      "ĠDuring": 1869,
      "Ġday": 1870,
      "Ġgrow": 1871,
      "Ġerror": 1872,
      "Ġconcern": 1873,
      "isd": 1874,
      "icial": 1875,
      "Ġpract": 1876,
      "imes": 1877,
      "Ġback": 1878,
      "ortgage": 1879,
      "Ġagg": 1880,
      "Ġser": 1881,
      "Ġgas": 1882,
      "way": 1883,
      "Ġcompensation": 1884,
      "Ġbeh": 1885,
      "ĠExhibit": 1886,
      "by": 1887,
      "ĠEn": 1888,
      "endent": 1889,
      "CIAL": 1890,
      ")(": 1891,
      "Ġthird": 1892,
      "Ġreturn": 1893,
      "Ġactivities": 1894,
      "Ġfollows": 1895,
      "Ġsecurities": 1896,
      "Ġindividual": 1897,
      "Ġbuild": 1898,
      "Ġimport": 1899,
      "visions": 1900,
      "ters": 1901,
      "Ġcompanies": 1902,
      "Ġpar": 1903,
      "Ġmatter": 1904,
      "lor": 1905,
      "Ġimm": 1906,
      "Ġant": 1907,
      "ising": 1908,
      "Ġjudge": 1909,
      "Ġvol": 1910,
      "ĠTo": 1911,
      "Ġlease": 1912,
      "orrow": 1913,
      "Ġeffective": 1914,
      "Ġ22": 1915,
      "lem": 1916,
      "Ġve": 1917,
      "pose": 1918,
      "here": 1919,
      "Ġeng": 1920,
      "Ġopp": 1921,
      "Ġliability": 1922,
      "Ġem": 1923,
      "bers": 1924,
      "Ġcommit": 1925,
      "Ġaccounting": 1926,
      "ĠCON": 1927,
      "Ġbelow": 1928,
      "ley": 1929,
      "ably": 1930,
      "Ġprincipal": 1931,
      "Ġproject": 1932,
      "Ġprodu": 1933,
      "Ġtestified": 1934,
      "Ġdivid": 1935,
      "alf": 1936,
      "Ġinvestment": 1937,
      "40": 1938,
      ",\"": 1939,
      "Ġposition": 1940,
      "Ġchildren": 1941,
      "Ġfederal": 1942,
      "ĠâĢĺ": 1943,
      "Ġparticular": 1944,
      "Ġwitness": 1945,
      "lu": 1946,
      "ĠArk": 1947,
      "Ġlimit": 1948,
      "Ġdays": 1949,
      "ĠFIN": 1950,
      "Ġsup": 1951,
      "Ġmem": 1952,
      "Ġcondition": 1953,
      "198": 1954,
      "Ġpot": 1955,
      "Ġeither": 1956,
      "val": 1957,
      "ĠSection": 1958,
      "Ġlegisl": 1959,
      "Ġadministr": 1960,
      "Ġinst": 1961,
      "Ġpayment": 1962,
      "ĠDef": 1963,
      "Ġhome": 1964,
      "ĠServ": 1965,
      "Ġsold": 1966,
      "Ġaward": 1967,
      "ulation": 1968,
      "urer": 1969,
      "ohn": 1970,
      "gg": 1971,
      "Ġgr": 1972,
      "poses": 1973,
      "Ġseveral": 1974,
      "Ġprevi": 1975,
      "Ġcompared": 1976,
      "ium": 1977,
      "Ġanal": 1978,
      "ĠSp": 1979,
      "Ġgiven": 1980,
      "ĠFINAN": 1981,
      "uit": 1982,
      "Ġanother": 1983,
      "Ġprovisions": 1984,
      "Ġaverage": 1985,
      "ave": 1986,
      "Ġhand": 1987,
      "Ġtreat": 1988,
      "Ġassum": 1989,
      "Ġfive": 1990,
      "34": 1991,
      "Ġentit": 1992,
      "work": 1993,
      "22": 1994,
      "Ġchanges": 1995,
      "Ġreflect": 1996,
      "ccess": 1997,
      "Ġdistrict": 1998,
      "Ġfacts": 1999,
      "Ġexpress": 2000,
      "Ġlegal": 2001,
      "Ġconnection": 2002,
      "self": 2003,
      "Ġsell": 2004,
      "Ġcircumstances": 2005,
      "Ġappear": 2006,
      "Ġplace": 2007,
      "Ġ40": 2008,
      "ĠFINANCIAL": 2009,
      "Ġdeath": 2010,
      "Ġfacilities": 2011,
      "ĠCity": 2012,
      "Ġpriv": 2013,
      "ĠTr": 2014,
      "Ġcannot": 2015,
      "Ġamong": 2016,
      "uation": 2017,
      "los": 2018,
      "Ġnecessary": 2019,
      "Ġbenefits": 2020,
      "Ġestate": 2021,
      "Ġreli": 2022,
      "Ġtak": 2023,
      "Ġacquisition": 2024,
      "ĠId": 2025,
      "Ġhist": 2026,
      "MENTS": 2027,
      "60": 2028,
      "Ġnow": 2029,
      "Ġche": 2030,
      "endment": 2031,
      "enn": 2032,
      "imum": 2033,
      "Ġpurposes": 2034,
      "Ġsimil": 2035,
      "Ġaffirm": 2036,
      "Ġforth": 2037,
      "Ġcomput": 2038,
      "Ġut": 2039,
      "Ġway": 2040,
      "ĠUnder": 2041,
      "Ġconditions": 2042,
      "edi": 2043,
      "197": 2044,
      "ĠTrust": 2045,
      "Ġdepos": 2046,
      "ries": 2047,
      "Ġdetermined": 2048,
      "Ġsupra": 2049,
      "ĠJohn": 2050,
      "Ġnotice": 2051,
      "Ġmo": 2052,
      "ĠAnd": 2053,
      "uch": 2054,
      "Ġed": 2055,
      "ining": 2056,
      "199": 2057,
      "Ġpayments": 2058,
      "ercial": 2059,
      "Ġnotes": 2060,
      "vent": 2061,
      "Ġphys": 2062,
      "ATION": 2063,
      "Ġspecial": 2064,
      "Ġarea": 2065,
      "angu": 2066,
      "get": 2067,
      "ĠII": 2068,
      "Ġfull": 2069,
      "Ġtake": 2070,
      "Ġfacility": 2071,
      "Ġimpact": 2072,
      "unction": 2073,
      "Ġsett": 2074,
      "ctions": 2075,
      "Ġgovernment": 2076,
      "Ġgroup": 2077,
      "Ġread": 2078,
      "____": 2079,
      "Ġequity": 2080,
      "Ġconsidered": 2081,
      "Ġofficers": 2082,
      "Ġdefendants": 2083,
      "term": 2084,
      "Ġassess": 2085,
      "xt": 2086,
      "ule": 2087,
      "ĠBut": 2088,
      "retion": 2089,
      "vert": 2090,
      "stitut": 2091,
      "ious": 2092,
      "Ġoption": 2093,
      "33": 2094,
      "Ġpresented": 2095,
      "Ġdamages": 2096,
      "Ġwarrant": 2097,
      "Ġfam": 2098,
      "Ġowned": 2099,
      "Ġagreements": 2100,
      "aged": 2101,
      "Ġrespond": 2102,
      "Ġacquired": 2103,
      "Ġcover": 2104,
      "CC": 2105,
      "Ġjurisd": 2106,
      "ĠIntern": 2107,
      "Ġpurpose": 2108,
      "ĠSub": 2109,
      "ief": 2110,
      "ĠShe": 2111,
      "ĠNO": 2112,
      "app": 2113,
      "ĠDirectors": 2114,
      "Ġart": 2115,
      "ĠCode": 2116,
      "ĠStatements": 2117,
      "ĠOffic": 2118,
      "Ġsepar": 2119,
      "Ġexam": 2120,
      "Ġbre": 2121,
      "Ġshort": 2122,
      "ĠPre": 2123,
      "ealth": 2124,
      "Ġadverse": 2125,
      "ĠDr": 2126,
      "Ġline": 2127,
      "Ġtherefore": 2128,
      "ĠOper": 2129,
      "au": 2130,
      "Ġalleged": 2131,
      "outh": 2132,
      "Ġsufficient": 2133,
      "Ġsubsidiaries": 2134,
      "preme": 2135,
      "ĠNotes": 2136,
      "eng": 2137,
      "ĠTO": 2138,
      "Ġground": 2139,
      "Ġfactors": 2140,
      "Ġmonths": 2141,
      "Ġcurrently": 2142,
      "Ġhig": 2143,
      "sp": 2144,
      "ĠWhen": 2145,
      "Ġlosses": 2146,
      "Ġtele": 2147,
      "Ġdi": 2148,
      "eed": 2149,
      "Ġincludes": 2150,
      "Ġrelations": 2151,
      "Ġaddress": 2152,
      "Ġproduction": 2153,
      "The": 2154,
      "ĠManagement": 2155,
      "Ġple": 2156,
      "Ġmajority": 2157,
      "Ġparticip": 2158,
      "Ġseek": 2159,
      "tter": 2160,
      "Ġcharge": 2161,
      "ĠSc": 2162,
      "Ġdel": 2163,
      "Ġintern": 2164,
      "itig": 2165,
      "urch": 2166,
      "iminal": 2167,
      "lying": 2168,
      "Ġliabilities": 2169,
      "Ġcert": 2170,
      "ĠTHE": 2171,
      "unt": 2172,
      "ATED": 2173,
      "Ġrestr": 2174,
      "Ġ50": 2175,
      "Ġenvironment": 2176,
      "Ġdismiss": 2177,
      "Ġprovision": 2178,
      "Ġissues": 2179,
      "Ġsit": 2180,
      "Ġdiscretion": 2181,
      "Ġrequires": 2182,
      "Ġsimilar": 2183,
      "Ġadopt": 2184,
      "Ġprosec": 2185,
      "Ġentitled": 2186,
      "Ġfour": 2187,
      "enced": 2188,
      "Ġlangu": 2189,
      "Ġtaxes": 2190,
      "Ġ--": 2191,
      "ourse": 2192,
      "Ġexercise": 2193,
      "ĠAppellant": 2194,
      "Ġresearch": 2195,
      "Ġorgan": 2196,
      "Ġproblem": 2197,
      "Ġsuccess": 2198,
      "Ġindustry": 2199,
      "Ġlocal": 2200,
      "Ġexisting": 2201,
      "Ġevery": 2202,
      "uty": 2203,
      "Ġdisp": 2204,
      "conom": 2205,
      "Ġbl": 2206,
      "24": 2207,
      "Ġapplication": 2208,
      "Ġestimated": 2209,
      "Ġlarge": 2210,
      "ived": 2211,
      "ah": 2212,
      "Ġability": 2213,
      "ysis": 2214,
      "ĠPh": 2215,
      "Ġdistribut": 2216,
      "Ġestablished": 2217,
      "Ġdri": 2218,
      "ĠOr": 2219,
      "Ġgre": 2220,
      "Ġbalance": 2221,
      "Ġpost": 2222,
      "asing": 2223,
      "Ġamended": 2224,
      "Ġschool": 2225,
      "Ġget": 2226,
      "Ġworld": 2227,
      "cribed": 2228,
      "Ġvery": 2229,
      "Ġ196": 2230,
      "avor": 2231,
      "75": 2232,
      "Ġconstruction": 2233,
      "ĠVice": 2234,
      "Ġcustomer": 2235,
      "ĠCont": 2236,
      "Ġexpected": 2237,
      "Ġmean": 2238,
      "Ġfr": 2239,
      "ĠNote": 2240,
      "Ġcarry": 2241,
      "set": 2242,
      "ĠSU": 2243,
      "ING": 2244,
      "Ġemployee": 2245,
      "Ġmight": 2246,
      "Ġtre": 2247,
      "Ġdetermine": 2248,
      "ivision": 2249,
      "Ġcollect": 2250,
      "Ġoffice": 2251,
      "ĠTe": 2252,
      "Ġportion": 2253,
      "ises": 2254,
      "partment": 2255,
      "23": 2256,
      "osp": 2257,
      "ands": 2258,
      "Ġmedical": 2259,
      "Ġprom": 2260,
      "Ġtru": 2261,
      "Ġproperties": 2262,
      "Ġlocated": 2263,
      "Ġpass": 2264,
      "ĠAccount": 2265,
      "Ġproced": 2266,
      "rect": 2267,
      "Ġrecognized": 2268,
      "Ġaccounts": 2269,
      "Ġborrow": 2270,
      "200": 2271,
      "ĠSecurities": 2272,
      "ism": 2273,
      "Ġlower": 2274,
      "ling": 2275,
      "ftw": 2276,
      "Ġopen": 2277,
      "Ġbenefit": 2278,
      "Ġask": 2279,
      "ancing": 2280,
      "Ġprem": 2281,
      "Ġten": 2282,
      "Ġlist": 2283,
      "ĠThey": 2284,
      "ftware": 2285,
      "ĠItem": 2286,
      "Ġrecorded": 2287,
      "Ġcal": 2288,
      "ĠRule": 2289,
      "icted": 2290,
      "Ġauthority": 2291,
      "Ġlanguage": 2292,
      "Ġcontinue": 2293,
      "Ġaccord": 2294,
      "reed": 2295,
      "Ġearnings": 2296,
      "Ġmortgage": 2297,
      "Ġregarding": 2298,
      "ĠConsolidated": 2299,
      "Ġparent": 2300,
      "Ġannual": 2301,
      "Ġsubstantial": 2302,
      "ĠEd": 2303,
      "ĠSupreme": 2304,
      "ler": 2305,
      "Ġexpl": 2306,
      "ote": 2307,
      "Ġrecover": 2308,
      "Ġstatutory": 2309,
      "ĠJust": 2310,
      "Ġcontracts": 2311,
      "Ġnote": 2312,
      "Ġapplicable": 2313,
      "lusion": 2314,
      "Ġadjust": 2315,
      "Ġowners": 2316,
      "stitutional": 2317,
      "ault": 2318,
      "ĠAnnual": 2319,
      "Ġmeas": 2320,
      "Ġview": 2321,
      "Ġsmall": 2322,
      "Ġtechnology": 2323,
      "Ġguil": 2324,
      "ral": 2325,
      "ĠAccording": 2326,
      "iam": 2327,
      "acter": 2328,
      "Ġpoint": 2329,
      "Ġconsum": 2330,
      "Ġjurisdiction": 2331,
      "Ġcommercial": 2332,
      "Ġpropos": 2333,
      "Ġappropri": 2334,
      "Ġfailure": 2335,
      "ought": 2336,
      "Ġtrust": 2337,
      "Ġdefense": 2338,
      "Ġaccess": 2339,
      "Ġimportant": 2340,
      "21": 2341,
      "Ġrevenue": 2342,
      "Ġaudit": 2343,
      "ĠAlthough": 2344,
      "Ġdenied": 2345,
      "27": 2346,
      "Ġassociated": 2347,
      "ison": 2348,
      "Ġeconom": 2349,
      "Ġargument": 2350,
      "hing": 2351,
      "aska": 2352,
      "ets": 2353,
      "ames": 2354,
      "Ġevent": 2355,
      "ĠâĢĵ": 2356,
      "ĠJud": 2357,
      "ruct": 2358,
      "iving": 2359,
      "state": 2360,
      "ĠFirst": 2361,
      "28": 2362,
      "Ġdistribution": 2363,
      "Ġfunds": 2364,
      "oll": 2365,
      "Ġsentence": 2366,
      "vest": 2367,
      "Ġtaken": 2368,
      "Ġbegin": 2369,
      "abor": 2370,
      "ĠSTATEMENTS": 2371,
      "mission": 2372,
      "Ġfavor": 2373,
      "ĠExecutive": 2374,
      "Ġexcept": 2375,
      "--------": 2376,
      "ependent": 2377,
      "ortun": 2378,
      "Ġword": 2379,
      "AT": 2380,
      "26": 2381,
      "Ġsy": 2382,
      "ĠAppeal": 2383,
      "Ġdown": 2384,
      "Ġperformance": 2385,
      "ĠMont": 2386,
      "\"),": 2387,
      "sw": 2388,
      "ĠAmerican": 2389,
      "35": 2390,
      "ane": 2391,
      "Ġrent": 2392,
      "omet": 2393,
      "ĠWill": 2394,
      "aging": 2395,
      "ocu": 2396,
      "ĠIns": 2397,
      "Ġlater": 2398,
      "els": 2399,
      "Ġrelationship": 2400,
      "Ġestablish": 2401,
      "ateg": 2402,
      "Ġcomplaint": 2403,
      "Ġimprove": 2404,
      "ĠNational": 2405,
      "inn": 2406,
      "enior": 2407,
      "ier": 2408,
      "inated": 2409,
      "atural": 2410,
      "Ġserved": 2411,
      "oot": 2412,
      "29": 2413,
      "Ġproceedings": 2414,
      "Ġabs": 2415,
      "Ġknown": 2416,
      "ĠCent": 2417,
      "Ġhigher": 2418,
      "Ġholding": 2419,
      "Ġcapac": 2420,
      "den": 2421,
      "cy": 2422,
      "Ġprotect": 2423,
      "Ġplans": 2424,
      "Ġstandards": 2425,
      "Ġbelieve": 2426,
      "equ": 2427,
      "ample": 2428,
      "Ġveh": 2429,
      "vant": 2430,
      "Ġpotential": 2431,
      "Ġinjury": 2432,
      "Ġpersonal": 2433,
      "overed": 2434,
      "Ġ60": 2435,
      "Ġ0": 2436,
      "oy": 2437,
      "Ġcharged": 2438,
      "cri": 2439,
      "oid": 2440,
      "Ġchall": 2441,
      "alk": 2442,
      "see": 2443,
      "ann": 2444,
      "Ġhum": 2445,
      "Ġchar": 2446,
      "Ġmult": 2447,
      "ems": 2448,
      "str": 2449,
      "Ġreported": 2450,
      "RS": 2451,
      "Ġeff": 2452,
      "OU": 2453,
      "Ġcomb": 2454,
      "Ġel": 2455,
      "Ġattempt": 2456,
      "Ġsoftware": 2457,
      "Ġautom": 2458,
      "iforn": 2459,
      "Ġofficer": 2460,
      "Ġsubsidiary": 2461,
      "ek": 2462,
      "Ġplaintiffs": 2463,
      "ifornia": 2464,
      "ĠNet": 2465,
      "olution": 2466,
      "Ġcoll": 2467,
      "eg": 2468,
      "Ġable": 2469,
      "Ġvict": 2470,
      "Ġstates": 2471,
      "ications": 2472,
      "ĠCar": 2473,
      "Ġoil": 2474,
      "ension": 2475,
      "ĠAfter": 2476,
      "Ġeval": 2477,
      "jud": 2478,
      "Ġverd": 2479,
      "Ġmy": 2480,
      "Ġregulations": 2481,
      "Ġmuch": 2482,
      "Ġsaf": 2483,
      "perior": 2484,
      "Ġclear": 2485,
      "TEM": 2486,
      "Ġaccordance": 2487,
      "ĠCalifornia": 2488,
      "iversity": 2489,
      ",âĢĿ": 2490,
      "Ġcourse": 2491,
      "Ġeffort": 2492,
      "ĠPr": 2493,
      "ĠAssoci": 2494,
      "Ġinvolved": 2495,
      "ĠDefendant": 2496,
      "Ġlight": 2497,
      "EL": 2498,
      "Ġname": 2499,
      "Ġdeli": 2500,
      "Ġoriginal": 2501,
      "ulated": 2502,
      "Ġbecome": 2503,
      "Ġwritten": 2504,
      "45": 2505,
      "rug": 2506,
      "ĠOfficer": 2507,
      "egr": 2508,
      "Ġamort": 2509,
      "wise": 2510,
      "duction": 2511,
      "Ġfinding": 2512,
      "ev": 2513,
      "Ġtreatment": 2514,
      "Ġneglig": 2515,
      "Ġpossible": 2516,
      "ĠIll": 2517,
      "orporate": 2518,
      "Ġfailed": 2519,
      "Ġdecl": 2520,
      "ring": 2521,
      "ellee": 2522,
      "ories": 2523,
      "Ġcontribut": 2524,
      "Ġ21": 2525,
      "ences": 2526,
      "mb": 2527,
      "Ġmembers": 2528,
      "Ġaggreg": 2529,
      "Ġexcess": 2530,
      "read": 2531,
      "ĠBro": 2532,
      "Ġmarketing": 2533,
      "Ġbur": 2534,
      "Ġtrad": 2535,
      "Ġmarkets": 2536,
      "ĠChief": 2537,
      "ĠFr": 2538,
      "ying": 2539,
      "day": 2540,
      "erve": 2541,
      "ERS": 2542,
      "ried": 2543,
      "Ġsw": 2544,
      "Ġgrowth": 2545,
      "Ġfinal": 2546,
      "Ġfix": 2547,
      "Ġpayable": 2548,
      "ists": 2549,
      "Ġsix": 2550,
      "ĠCONS": 2551,
      "inary": 2552,
      "Ġsk": 2553,
      "Ġcalled": 2554,
      "ĠIs": 2555,
      "earch": 2556,
      "Ġcriminal": 2557,
      "Ġvictim": 2558,
      "âĢĶ": 2559,
      "Ġhaving": 2560,
      "Ġlook": 2561,
      "Ġred": 2562,
      "Ġ33": 2563,
      "ĠWhile": 2564,
      "Ġlast": 2565,
      "Ġlearn": 2566,
      "ograph": 2567,
      "go": 2568,
      "ictions": 2569,
      "Ġincurred": 2570,
      "Ġnetwork": 2571,
      "ental": 2572,
      "ĠMed": 2573,
      "MENT": 2574,
      "ĠBec": 2575,
      "Ġadministrative": 2576,
      "80": 2577,
      "Ġ35": 2578,
      "ĠExchange": 2579,
      "ĠFederal": 2580,
      "Ġdefined": 2581,
      "ĠNOTE": 2582,
      "Ġsummary": 2583,
      "anch": 2584,
      "Ġequal": 2585,
      "70": 2586,
      "RE": 2587,
      "ender": 2588,
      "Ġleast": 2589,
      "\").": 2590,
      "Ġwa": 2591,
      "Ġnature": 2592,
      "Ġ1991": 2593,
      "alty": 2594,
      "Ġsubsequ": 2595,
      "Ġleases": 2596,
      "Ġextent": 2597,
      "int": 2598,
      "Ġmur": 2599,
      "ators": 2600,
      "lood": 2601,
      "Ġemployment": 2602,
      "Ġfood": 2603,
      "Ġpreviously": 2604,
      "Ġtable": 2605,
      "ery": 2606,
      "Ġremaining": 2607,
      "âĢĺ": 2608,
      "49": 2609,
      "quid": 2610,
      "Ġrelating": 2611,
      "Ġreserv": 2612,
      "ĠMiss": 2613,
      "Ġcharges": 2614,
      "ĠBy": 2615,
      "Ġlaws": 2616,
      "Ġoffer": 2617,
      "enture": 2618,
      "FAS": 2619,
      "Ġprices": 2620,
      "Ġ195": 2621,
      "Ġcorrect": 2622,
      "ional": 2623,
      "Ġverdict": 2624,
      "Ġassign": 2625,
      "Ġbar": 2626,
      "Ġsimp": 2627,
      "ledge": 2628,
      "ene": 2629,
      "Ġsing": 2630,
      "ĠYear": 2631,
      "Ġargues": 2632,
      "Ġforeign": 2633,
      "bit": 2634,
      "Ġcompon": 2635,
      "ivil": 2636,
      "Ġopportun": 2637,
      "year": 2638,
      "ittee": 2639,
      "Ġprep": 2640,
      "Ġaffili": 2641,
      "sy": 2642,
      "ina": 2643,
      "Ġgive": 2644,
      "ĠLo": 2645,
      "46": 2646,
      "ules": 2647,
      "ĠLaw": 2648,
      "acy": 2649,
      "Ġotherwise": 2650,
      "Ġproceeds": 2651,
      "ration": 2652,
      "ĠGroup": 2653,
      "Ġmeans": 2654,
      "Ġpen": 2655,
      "47": 2656,
      "osing": 2657,
      "aff": 2658,
      "Ġpolice": 2659,
      "OLID": 2660,
      "Ġplac": 2661,
      "Ġdeferred": 2662,
      "Ġboard": 2663,
      "Ġinvestments": 2664,
      "Ġund": 2665,
      "Ġnever": 2666,
      "side": 2667,
      "ĠZ": 2668,
      "bur": 2669,
      "lose": 2670,
      "Ġintro": 2671,
      "apital": 2672,
      "ĠMich": 2673,
      "Ġbody": 2674,
      "Ġinterests": 2675,
      "ĠCONSOLID": 2676,
      "Ġappropriate": 2677,
      "Ġlead": 2678,
      "36": 2679,
      "iring": 2680,
      "Ġrevers": 2681,
      "ĠSm": 2682,
      "Ġvis": 2683,
      "Ġintegr": 2684,
      "Ġdocu": 2685,
      "Ġdeg": 2686,
      "ici": 2687,
      "dition": 2688,
      "cing": 2689,
      "Ġlicense": 2690,
      "ĠWest": 2691,
      "Ġresulting": 2692,
      "rief": 2693,
      "ead": 2694,
      "Ġcaused": 2695,
      "Ġplant": 2696,
      "elf": 2697,
      "Ġdispos": 2698,
      "Ġlevels": 2699,
      "ached": 2700,
      "Ġareas": 2701,
      "Ġmaking": 2702,
      "ival": 2703,
      "ĠITEM": 2704,
      "48": 2705,
      "Ġdev": 2706,
      "Ġothers": 2707,
      "Ġcircuit": 2708,
      "akes": 2709,
      "Ġsat": 2710,
      "Ġansw": 2711,
      "ĠCONSOLIDATED": 2712,
      "Ġcli": 2713,
      "Ġnext": 2714,
      "sh": 2715,
      "Ġreceive": 2716,
      "Ġpurchased": 2717,
      "arant": 2718,
      "ĠYork": 2719,
      "Ġinsu": 2720,
      "Ġtransactions": 2721,
      "Ġpersons": 2722,
      "Ġ100": 2723,
      "AC": 2724,
      "Ġoften": 2725,
      "Ġrather": 2726,
      "Ġdirectors": 2727,
      "Ġpartnership": 2728,
      "ĠLim": 2729,
      "Ġcell": 2730,
      "att": 2731,
      "Ġfamily": 2732,
      "Ġintent": 2733,
      "ĠThat": 2734,
      "Ġstill": 2735,
      "Ġcomplete": 2736,
      "Ġactions": 2737,
      "%,": 2738,
      "Ġnatural": 2739,
      "Ġentire": 2740,
      "Ġfree": 2741,
      "apt": 2742,
      "Ġaccepted": 2743,
      "39": 2744,
      "Ġbuilding": 2745,
      "Ġjoint": 2746,
      "ĠGe": 2747,
      "Ġdr": 2748,
      "ĠDepartment": 2749,
      "ĠOur": 2750,
      "ores": 2751,
      "ino": 2752,
      "Ġagreed": 2753,
      "38": 2754,
      "Ġdescribed": 2755,
      "Ġguilty": 2756,
      "Ġpast": 2757,
      "Ġexchange": 2758,
      "ables": 2759,
      "RO": 2760,
      "Ġadopted": 2761,
      "Ġ36": 2762,
      "Ġprinciples": 2763,
      "ospital": 2764,
      "itle": 2765,
      "liance": 2766,
      "Ġqual": 2767,
      "Ġobs": 2768,
      "Ġmanufacturing": 2769,
      "Ġturn": 2770,
      "ource": 2771,
      "ged": 2772,
      "ĠNorth": 2773,
      "ipp": 2774,
      "Ġcorporation": 2775,
      "Ġet": 2776,
      "ones": 2777,
      "eep": 2778,
      "Ġmar": 2779,
      "Ġfee": 2780,
      "oting": 2781,
      "ĠMass": 2782,
      "ĠWith": 2783,
      "Ġlow": 2784,
      "ĠBecause": 2785,
      "Ġarr": 2786,
      "Ġduty": 2787,
      "ĠWilliam": 2788,
      "ĠJustice": 2789,
      "Ġinvestig": 2790,
      "Ġpred": 2791,
      "ggest": 2792,
      "Ġmis": 2793,
      "Ġwant": 2794,
      "Ġcharacter": 2795,
      "SI": 2796,
      "Ġbest": 2797,
      "Ġdom": 2798,
      "37": 2799,
      "Ġsubstantially": 2800,
      "Ġcompleted": 2801,
      "Ġindependent": 2802,
      "LE": 2803,
      "ĠAtt": 2804,
      "fer": 2805,
      "Ġassurance": 2806,
      "Ġworking": 2807,
      "Ġpop": 2808,
      "Ġquality": 2809,
      "ott": 2810,
      "agn": 2811,
      "Ġstart": 2812,
      "Ġperiods": 2813,
      "ana": 2814,
      "Ġhouse": 2815,
      "ĠAmendment": 2816,
      "itation": 2817,
      "ware": 2818,
      "500": 2819,
      "Ġsingle": 2820,
      "lt": 2821,
      "uses": 2822,
      "Ġseparate": 2823,
      "icult": 2824,
      "Ġcontinu": 2825,
      "eries": 2826,
      "ĠBl": 2827,
      "ĠHar": 2828,
      "Ġexample": 2829,
      "ĠOther": 2830,
      "Ġprejud": 2831,
      "Ġaccompany": 2832,
      "Ġes": 2833,
      "Ġunc": 2834,
      "Ġsuggest": 2835,
      "Ġaccru": 2836,
      "Ġestimates": 2837,
      "Ġmurder": 2838,
      "Ġenc": 2839,
      "Ġdiss": 2840,
      "Ġdecrease": 2841,
      "Ġdise": 2842,
      "Ġflows": 2843,
      "90": 2844,
      "Ġmoney": 2845,
      "pond": 2846,
      "Ġobligations": 2847,
      "nces": 2848,
      "Ġfoc": 2849,
      "ills": 2850,
      "Ġaggregate": 2851,
      "pret": 2852,
      "Ġdrug": 2853,
      "ĠTrans": 2854,
      "Ġdou": 2855,
      "Ġanalysis": 2856,
      "force": 2857,
      "Ġthink": 2858,
      "Ġassist": 2859,
      "Ġexecutive": 2860,
      "Ġselect": 2861,
      "Ġnear": 2862,
      "Ġconsideration": 2863,
      "stitute": 2864,
      "Ġadequ": 2865,
      "Ġrules": 2866,
      "Ġsuit": 2867,
      "omes": 2868,
      "raw": 2869,
      "Ġweek": 2870,
      "Ġrev": 2871,
      "ĠSystem": 2872,
      "Ġcross": 2873,
      "ĠDirector": 2874,
      "Ġactual": 2875,
      "Ġi": 2876,
      "Ġcommission": 2877,
      "Ġinitial": 2878,
      "Ġcrime": 2879,
      "iver": 2880,
      "ĠEmploy": 2881,
      "Ġnor": 2882,
      "Ġfeet": 2883,
      "itigation": 2884,
      "Ġbroad": 2885,
      "Ġaccompanying": 2886,
      "lies": 2887,
      "Ġdirectly": 2888,
      "Ġindicated": 2889,
      "Ġgreater": 2890,
      "ĠCredit": 2891,
      "ĠCan": 2892,
      "imate": 2893,
      "Ġdividends": 2894,
      "ception": 2895,
      "Ġdoct": 2896,
      "Ġ38": 2897,
      "Ġanticip": 2898,
      "obile": 2899,
      "Ġhead": 2900,
      "lated": 2901,
      "anced": 2902,
      "Ġaround": 2903,
      "Ġbrief": 2904,
      "ĠNeb": 2905,
      "Ġconviction": 2906,
      "Ġoccur": 2907,
      "Ġpercentage": 2908,
      "Ġsatis": 2909,
      "Ġcapacity": 2910,
      "Ġunless": 2911,
      "ĠEng": 2912,
      "Ġapplied": 2913,
      "arc": 2914,
      "Ġ1990": 2915,
      "Ġbook": 2916,
      "Ġeduc": 2917,
      "Ġexperience": 2918,
      "Ġintended": 2919,
      "ĠEu": 2920,
      "Ġ37": 2921,
      "Ġ45": 2922,
      "Ġliquid": 2923,
      "Ġearly": 2924,
      "Ġfile": 2925,
      "fully": 2926,
      "Ġtimes": 2927,
      "pro": 2928,
      "Ġapply": 2929,
      "Ġsay": 2930,
      "ĠLimited": 2931,
      "Ġdefin": 2932,
      "Ġleft": 2933,
      "Ġstudents": 2934,
      "ĠDel": 2935,
      "Ġprograms": 2936,
      "ris": 2937,
      "Ġprimary": 2938,
      "Ġage": 2939,
      "Ġbase": 2940,
      "ĠUniversity": 2941,
      "ĠAppeals": 2942,
      "MP": 2943,
      "iting": 2944,
      "US": 2945,
      "Ġrat": 2946,
      "Ġrelief": 2947,
      "Ġdemand": 2948,
      "Ġsol": 2949,
      "Ġformer": 2950,
      "Ġbehalf": 2951,
      "Ġprivate": 2952,
      "rest": 2953,
      "Ġdisclos": 2954,
      "encing": 2955,
      "ĠOne": 2956,
      "Ġneeds": 2957,
      "ĠBr": 2958,
      "let": 2959,
      "Ġauthorized": 2960,
      "Ġthings": 2961,
      "encies": 2962,
      "Ġproperly": 2963,
      "Ġutil": 2964,
      "based": 2965,
      "Ġexper": 2966,
      "luding": 2967,
      "Ġfinancing": 2968,
      "ida": 2969,
      "lace": 2970,
      "Ġminimum": 2971,
      "Ġcourts": 2972,
      "ĠSuch": 2973,
      "ellate": 2974,
      "Ġgreat": 2975,
      "65": 2976,
      "ales": 2977,
      "ĠUS": 2978,
      "Ġcontr": 2979,
      "Ġmil": 2980,
      "Ġexceed": 2981,
      "Ġcity": 2982,
      "ope": 2983,
      "Ġair": 2984,
      "Ġmeaning": 2985,
      "isions": 2986,
      "ĠQu": 2987,
      "ĠProper": 2988,
      "Ġaltern": 2989,
      "Ġdetermination": 2990,
      "Ġlack": 2991,
      "ciation": 2992,
      "Ġinterpret": 2993,
      "Ġmatters": 2994,
      "ided": 2995,
      "Ġ39": 2996,
      "Ġwhol": 2997,
      "iqu": 2998,
      "Ġfixed": 2999,
      "Ġprevent": 3000,
      "ĠFund": 3001,
      "ological": 3002,
      "Ġdeal": 3003,
      "Ġbecame": 3004,
      "Ġinstruction": 3005,
      "DA": 3006,
      "43": 3007,
      "Ġstudy": 3008,
      "Ġfindings": 3009,
      "ĠINC": 3010,
      "In": 3011,
      "ada": 3012,
      "ication": 3013,
      "ocial": 3014,
      "Ġlarg": 3015,
      "Ġoperation": 3016,
      "âĢĵ": 3017,
      "irement": 3018,
      "Ġfel": 3019,
      "Ġess": 3020,
      "Ġsuper": 3021,
      "Ġcontinued": 3022,
      "Ġvehicle": 3023,
      "Ġhuman": 3024,
      "ĠGa": 3025,
      "Ġadded": 3026,
      "Ġstruct": 3027,
      "Ġcrit": 3028,
      "ĠHold": 3029,
      "ĠSupp": 3030,
      "Ġfew": 3031,
      "ĠClass": 3032,
      "ĠNOTES": 3033,
      "Ġren": 3034,
      "Ġrange": 3035,
      "ĠInvest": 3036,
      "Ġoccurred": 3037,
      "rap": 3038,
      "Ġregulatory": 3039,
      "Ġimplement": 3040,
      "Ġknowledge": 3041,
      "Ġpractice": 3042,
      "Ġretain": 3043,
      "izing": 3044,
      "CE": 3045,
      "66": 3046,
      "Ġownership": 3047,
      "Ġinstall": 3048,
      "Ġder": 3049,
      "Ġtoget": 3050,
      "aster": 3051,
      "Ġtogether": 3052,
      "Ġdeveloped": 3053,
      "ĠAccounting": 3054,
      "Ġtransaction": 3055,
      "Ġresponsibility": 3056,
      "Ġsettlement": 3057,
      "Ġprec": 3058,
      "rope": 3059,
      "Ġevalu": 3060,
      "Ġreduce": 3061,
      "ĠServices": 3062,
      "ĠFrom": 3063,
      ".[": 3064,
      "Ġprosecut": 3065,
      "Ġoffense": 3066,
      "Ġretail": 3067,
      "Ġaccident": 3068,
      "Ġconcerning": 3069,
      "Ġaccording": 3070,
      "chie": 3071,
      "Ġener": 3072,
      "Ġnoted": 3073,
      "itor": 3074,
      "CA": 3075,
      "Ġimmedi": 3076,
      "Ġconstitutional": 3077,
      "endit": 3078,
      "after": 3079,
      "ĠThus": 3080,
      "Ġreduced": 3081,
      "Ġrelevant": 3082,
      "Ġsomet": 3083,
      "Ġeconomic": 3084,
      "Ġmaterials": 3085,
      "Ġreasons": 3086,
      "aper": 3087,
      "Ġapproval": 3088,
      "Ġwom": 3089,
      "Ġsecurity": 3090,
      "44": 3091,
      "ĠPur": 3092,
      "amed": 3093,
      "Ġspace": 3094,
      "Ġoutside": 3095,
      "Ġlikely": 3096,
      "Ġapplications": 3097,
      "Ġconclude": 3098,
      "ourth": 3099,
      "Ġsex": 3100,
      "ĠPri": 3101,
      "Ġconcluded": 3102,
      "Ġprofit": 3103,
      "hers": 3104,
      "erg": 3105,
      "Ġhistory": 3106,
      "Ġdegree": 3107,
      "fol": 3108,
      "Ġconclusion": 3109,
      "Ġresources": 3110,
      "Ġcontained": 3111,
      "Ġsigned": 3112,
      "Ġpo": 3113,
      "ama": 3114,
      "izes": 3115,
      "ĠInterest": 3116,
      "erous": 3117,
      "avings": 3118,
      "Ġblood": 3119,
      "idential": 3120,
      "BS": 3121,
      "Ġtold": 3122,
      "enance": 3123,
      "Ġdifficult": 3124,
      "Ġviolation": 3125,
      "Ġresulted": 3126,
      "Ġthus": 3127,
      "Ġthous": 3128,
      "Ġasked": 3129,
      "Ġinvent": 3130,
      "Ġhour": 3131,
      "ĠMar": 3132,
      "ĠAccordingly": 3133,
      "lier": 3134,
      "Ġquestions": 3135,
      "Ġphysical": 3136,
      "Ġsust": 3137,
      "ĠFlor": 3138,
      "Ġsqu": 3139,
      "ĠPeople": 3140,
      "Ġjoin": 3141,
      "Ġproviding": 3142,
      "ĠBe": 3143,
      "ĠAttorney": 3144,
      "ittle": 3145,
      "aintenance": 3146,
      "ights": 3147,
      "ansas": 3148,
      "Ġput": 3149,
      "Ġfunction": 3150,
      "now": 3151,
      "ĠEurope": 3152,
      "Ġsole": 3153,
      "rought": 3154,
      "opp": 3155,
      "Ġkey": 3156,
      "ĠCt": 3157,
      "Ġenvironmental": 3158,
      "Ġcomputer": 3159,
      "xy": 3160,
      "Ġenergy": 3161,
      "Ġactivity": 3162,
      "Ġerred": 3163,
      "raft": 3164,
      "Ġpermit": 3165,
      "ĠSFAS": 3166,
      "Ġproposed": 3167,
      "ĠEqu": 3168,
      "hedu": 3169,
      "hedule": 3170,
      "Ġtype": 3171,
      "68": 3172,
      "ĠSeries": 3173,
      "Ġhard": 3174,
      "Ġdirector": 3175,
      "bal": 3176,
      "Ġrun": 3177,
      "Ġthough": 3178,
      "ersion": 3179,
      "ĠFlorida": 3180,
      "Ġachie": 3181,
      "Ġfully": 3182,
      "Ġapproved": 3183,
      "Ġshown": 3184,
      "empor": 3185,
      "Ġgross": 3186,
      "42": 3187,
      "Ġarbit": 3188,
      "Ġunre": 3189,
      "ĠGeor": 3190,
      "Ġcompliance": 3191,
      "Ġunderst": 3192,
      "ĠSouth": 3193,
      "ontin": 3194,
      "illing": 3195,
      "Ġexpendit": 3196,
      "Ġharm": 3197,
      "ĠRest": 3198,
      "ext": 3199,
      "Ġcalc": 3200,
      "Ġold": 3201,
      "ĠAc": 3202,
      "Ġattribut": 3203,
      "ĠSmith": 3204,
      "ateral": 3205,
      "Ġresponse": 3206,
      "Ġele": 3207,
      "Ġengine": 3208,
      "ubl": 3209,
      "Ġcontends": 3210,
      "ĠInsurance": 3211,
      "icing": 3212,
      "55": 3213,
      "Ġdiscussed": 3214,
      "Ġclose": 3215,
      "Ġproceeding": 3216,
      "Ġ48": 3217,
      "PP": 3218,
      "Ġlot": 3219,
      "Ġcoverage": 3220,
      "ĠPer": 3221,
      "ĠConn": 3222,
      "ĠBar": 3223,
      "41": 3224,
      "ĠSenior": 3225,
      "Ġalthough": 3226,
      "TR": 3227,
      "Ġcorporate": 3228,
      "Ġalloc": 3229,
      "itors": 3230,
      "ĠFOR": 3231,
      "Ġclearly": 3232,
      "Ġnegligence": 3233,
      "rist": 3234,
      "atives": 3235,
      "ĠCorp": 3236,
      "Ġprotection": 3237,
      "Ġoffering": 3238,
      "31": 3239,
      "ĠOff": 3240,
      "69": 3241,
      "Ġwhole": 3242,
      "ways": 3243,
      "onstr": 3244,
      "Ġappellee": 3245,
      "reen": 3246,
      "Ġdecreased": 3247,
      "Ġreferred": 3248,
      "ĠLi": 3249,
      "ĠCapital": 3250,
      "Ġdesigned": 3251,
      "going": 3252,
      "Ġaffected": 3253,
      "67": 3254,
      "Ġplus": 3255,
      "Ġvolum": 3256,
      "Ġefforts": 3257,
      "utes": 3258,
      "Ġsite": 3259,
      "Ġinterv": 3260,
      "Ġrecomm": 3261,
      "law": 3262,
      "Ġnorm": 3263,
      "Ġ90": 3264,
      "nel": 3265,
      "Ġcommitted": 3266,
      "Ġprofession": 3267,
      "urchase": 3268,
      "Ġequival": 3269,
      "32": 3270,
      "Ġ1989": 3271,
      "ne": 3272,
      "ĠDisc": 3273,
      "Ġrespondent": 3274,
      "ĠGu": 3275,
      "Ġbegan": 3276,
      "'t": 3277,
      "Ġinstruments": 3278,
      "ĠYou": 3279,
      "Ġincreases": 3280,
      "Ġpoin": 3281,
      "Ġwords": 3282,
      "wards": 3283,
      "Ġmanner": 3284,
      "ĠCompensation": 3285,
      "ĠInternational": 3286,
      "Ġasset": 3287,
      "ĠFurther": 3288,
      "Ġsuff": 3289,
      "ĠStandard": 3290,
      "Ġarrange": 3291,
      "uted": 3292,
      "Ġitself": 3293,
      "Ġabuse": 3294,
      "Ġmanufacturer": 3295,
      "Ġconducted": 3296,
      "Ġfl": 3297,
      "Ġoffered": 3298,
      "off": 3299,
      "Ġpun": 3300,
      "mph": 3301,
      "Ġbrought": 3302,
      "ges": 3303,
      "Ġremain": 3304,
      "ients": 3305,
      "atic": 3306,
      "Ġbi": 3307,
      "Ġobtained": 3308,
      "Ġdemonstr": 3309,
      "ĠPreferred": 3310,
      "Ġproblems": 3311,
      "Ġmand": 3312,
      "Ġbeginning": 3313,
      "Ġcounty": 3314,
      "IL": 3315,
      "Ġeas": 3316,
      "Ġplay": 3317,
      "Ġenter": 3318,
      "Ġmove": 3319,
      "Ġcompetitive": 3320,
      "AG": 3321,
      "Ġbetter": 3322,
      "Ġvalid": 3323,
      "Ġbond": 3324,
      "az": 3325,
      "Ġcarrying": 3326,
      "Ġsought": 3327,
      "spect": 3328,
      "Ġmaintenance": 3329,
      "ĠRober": 3330,
      "ĠPartner": 3331,
      "vey": 3332,
      "pl": 3333,
      "Ġobserv": 3334,
      "Ġremand": 3335,
      "Ġtitle": 3336,
      "POR": 3337,
      "atter": 3338,
      "ov": 3339,
      "Ġcontain": 3340,
      "uck": 3341,
      "Ġpolicies": 3342,
      "Ġtook": 3343,
      "ett": 3344,
      "Ġallowed": 3345,
      "wealth": 3346,
      "requ": 3347,
      "ĠCommittee": 3348,
      "Ġregistr": 3349,
      "Ġoffset": 3350,
      "Ġintrodu": 3351,
      "formation": 3352,
      "):": 3353,
      "yond": 3354,
      "Ġenh": 3355,
      "ĠStat": 3356,
      "Ġfra": 3357,
      "Ġfire": 3358,
      "ĠArt": 3359,
      "ĠPursuant": 3360,
      "ĠOption": 3361,
      "Ġcop": 3362,
      "Ġ49": 3363,
      "ĠMore": 3364,
      "Ġult": 3365,
      "ĠOperating": 3366,
      "ĠAS": 3367,
      "ĠAddition": 3368,
      "Ġmember": 3369,
      "Ġeffects": 3370,
      "Ġlitigation": 3371,
      "Ġz": 3372,
      "uel": 3373,
      "Ġbasic": 3374,
      "Ġear": 3375,
      "ĠLeg": 3376,
      "Ġbeyond": 3377,
      "Ġchalleng": 3378,
      "ĠPlaintiff": 3379,
      "ĠMinn": 3380,
      "Ġ47": 3381,
      "ole": 3382,
      "Ġconsult": 3383,
      "Ġkeep": 3384,
      "Ġmax": 3385,
      "Ġfield": 3386,
      "Ġhistor": 3387,
      "oms": 3388,
      "Ġcheck": 3389,
      "folio": 3390,
      "ager": 3391,
      "100": 3392,
      "Ġissuance": 3393,
      "Ġitems": 3394,
      "owa": 3395,
      "ĠHealth": 3396,
      "Ġdisease": 3397,
      "Ġdepart": 3398,
      "ĠIncome": 3399,
      "Ġhospital": 3400,
      "Ġ80": 3401,
      "Ġguarant": 3402,
      "ĠRegistration": 3403,
      "oper": 3404,
      "ET": 3405,
      "Ġshareholders": 3406,
      "Ġwr": 3407,
      "Ġremo": 3408,
      "Ġasser": 3409,
      "illed": 3410,
      "Ġsquare": 3411,
      "Ġsched": 3412,
      "ifying": 3413,
      "Ġir": 3414,
      "ĠCommonwealth": 3415,
      "Ġdiv": 3416,
      "arks": 3417,
      "Ġcommunity": 3418,
      "Ġfirm": 3419,
      "aur": 3420,
      "HI": 3421,
      "ĠPublic": 3422,
      "ready": 3423,
      "emn": 3424,
      "Ġowner": 3425,
      "ull": 3426,
      "ington": 3427,
      "Ġmultip": 3428,
      "reet": 3429,
      "Ġself": 3430,
      "Ġlines": 3431,
      "asis": 3432,
      "Ġaccounted": 3433,
      "Ġcomponents": 3434,
      "emed": 3435,
      "ĠTex": 3436,
      "ĠPartners": 3437,
      "Ġgen": 3438,
      "holder": 3439,
      "Ġtermination": 3440,
      "Ġcred": 3441,
      "Ġcho": 3442,
      "Ġunits": 3443,
      "Ġenforce": 3444,
      "ĠAmerica": 3445,
      "Ġsubsequent": 3446,
      "Ġexpenditures": 3447,
      "Ġforce": 3448,
      "bs": 3449,
      "yc": 3450,
      "Ġexpert": 3451,
      "Ġdon": 3452,
      "iana": 3453,
      "icles": 3454,
      "with": 3455,
      "Ġstockholders": 3456,
      "ĠSince": 3457,
      "Ġalong": 3458,
      "Ġens": 3459,
      "Ġproof": 3460,
      "riz": 3461,
      "estic": 3462,
      "Ġexecut": 3463,
      "lusive": 3464,
      "Ġstrong": 3465,
      "Ġrad": 3466,
      "Ġ70": 3467,
      "Ġmakes": 3468,
      "ble": 3469,
      "Ġalready": 3470,
      "Ġflu": 3471,
      "Ġappeals": 3472,
      "App": 3473,
      "ffective": 3474,
      "ĠConstitution": 3475,
      "Ġtoo": 3476,
      "Ġburden": 3477,
      "ado": 3478,
      "Ġrequirement": 3479,
      "ape": 3480,
      "lex": 3481,
      "Ġevents": 3482,
      "ham": 3483,
      "Ġrelative": 3484,
      "unications": 3485,
      "olving": 3486,
      "Ġmere": 3487,
      "ĠSch": 3488,
      "Ġarrest": 3489,
      "using": 3490,
      "Ġinstitut": 3491,
      "Ġaffirmed": 3492,
      "yn": 3493,
      "IR": 3494,
      "ologies": 3495,
      "Ġsusp": 3496,
      "ĠMarket": 3497,
      "Ġcustody": 3498,
      "hens": 3499,
      "St": 3500,
      "Ġraised": 3501,
      "Ġdetail": 3502,
      "Ġpremium": 3503,
      "AM": 3504,
      "Ġdone": 3505,
      "ĠRec": 3506,
      "Ġsl": 3507,
      "Ġtransport": 3508,
      "Ġletter": 3509,
      "Ġtransfer": 3510,
      "CH": 3511,
      "57": 3512,
      "ille": 3513,
      "Ġobligation": 3514,
      "acc": 3515,
      "gments": 3516,
      "58": 3517,
      "59": 3518,
      "Ġremed": 3519,
      "ĠOperations": 3520,
      "Ġdetermining": 3521,
      "ĠShare": 3522,
      "Ġpartners": 3523,
      "mical": 3524,
      "Ġfiling": 3525,
      "ĠGr": 3526,
      "Ġspecifically": 3527,
      "Ġgoing": 3528,
      "Ġmen": 3529,
      "ĠSE": 3530,
      "Ġunit": 3531,
      "Ġcreate": 3532,
      "hibits": 3533,
      "Ġ1988": 3534,
      "ĠTherefore": 3535,
      "Ġsocial": 3536,
      "ĠVal": 3537,
      "com": 3538,
      "Ġoccup": 3539,
      "wide": 3540,
      "Ġgain": 3541,
      "venue": 3542,
      "ĠRel": 3543,
      "avi": 3544,
      "UL": 3545,
      "Ġcontroll": 3546,
      "phone": 3547,
      "ides": 3548,
      "Ġmarg": 3549,
      "Ġweigh": 3550,
      "ensive": 3551,
      "Ġappears": 3552,
      "Ġreporting": 3553,
      "Ġpage": 3554,
      "ĠAssociation": 3555,
      "Ġomitted": 3556,
      "Ġjudicial": 3557,
      "Ġadmitted": 3558,
      "Ġplaced": 3559,
      "Ġwitnesses": 3560,
      "ĠAla": 3561,
      "Ġcome": 3562,
      "________": 3563,
      "Ġwholly": 3564,
      "Ġportfolio": 3565,
      "Ġfall": 3566,
      "Ġinflu": 3567,
      "Ġcur": 3568,
      "ĠDIS": 3569,
      "ĠWar": 3570,
      "Ġreduction": 3571,
      "Ġtermin": 3572,
      "Ġcreated": 3573,
      "Ġconsent": 3574,
      "Ġopportunity": 3575,
      "umb": 3576,
      "Ġoverall": 3577,
      "Ġrob": 3578,
      "ĠâĢĶ": 3579,
      "Ġrecords": 3580,
      "Ġinternational": 3581,
      "iled": 3582,
      "99": 3583,
      "Ġlabor": 3584,
      "Ġforward": 3585,
      "ificate": 3586,
      "ĠAriz": 3587,
      "ened": 3588,
      "Ġdiscover": 3589,
      "mental": 3590,
      "Ġlegislature": 3591,
      "Ġvir": 3592,
      "Ġmother": 3593,
      "ĠPol": 3594,
      "Ġthousands": 3595,
      "entive": 3596,
      "Ġanswer": 3597,
      "Ġincreasing": 3598,
      "Ġdamage": 3599,
      "Ġ'": 3600,
      "ĠTexas": 3601,
      "Ġpersonnel": 3602,
      "Ġthroughout": 3603,
      "Ġagency": 3604,
      "Ġlimitations": 3605,
      "Ġnational": 3606,
      "Ġpresum": 3607,
      "Ġusu": 3608,
      "Ġacquisitions": 3609,
      "rog": 3610,
      "OS": 3611,
      "Ġrequested": 3612,
      "NT": 3613,
      "Ġtrue": 3614,
      "Ġdecisions": 3615,
      "roll": 3616,
      "Ġpossession": 3617,
      "ĠAut": 3618,
      "PS": 3619,
      "Ġcompar": 3620,
      "Ġstore": 3621,
      "Ġcountries": 3622,
      "oti": 3623,
      "ĠMo": 3624,
      "Ġruling": 3625,
      "Ġrecent": 3626,
      "Ġmeasure": 3627,
      "ford": 3628,
      "ĠPrior": 3629,
      "Ġacts": 3630,
      "Ġactually": 3631,
      "Ġsubmitted": 3632,
      "rav": 3633,
      "eth": 3634,
      "Ġengaged": 3635,
      "Ġpetitioner": 3636,
      "Ġinsured": 3637,
      "Ġadvert": 3638,
      "Ġreceivable": 3639,
      "be": 3640,
      "arth": 3641,
      "Ġill": 3642,
      "Ġstatutes": 3643,
      "ronic": 3644,
      "bor": 3645,
      "Ġsources": 3646,
      "Ġsuperior": 3647,
      "Ġreserves": 3648,
      "Ġtaking": 3649,
      "uries": 3650,
      "Ġlet": 3651,
      "ĠElect": 3652,
      "Ġstatus": 3653,
      "Ġsafety": 3654,
      "Ġelectric": 3655,
      "Ġrisks": 3656,
      "ensed": 3657,
      "Ġcollateral": 3658,
      "Ġreject": 3659,
      "II": 3660,
      "EM": 3661,
      "Ġargued": 3662,
      "abama": 3663,
      "Ġvest": 3664,
      "Ġwrong": 3665,
      "lass": 3666,
      "ĠCertain": 3667,
      "uled": 3668,
      "ience": 3669,
      "ĠEX": 3670,
      "Ġwife": 3671,
      "etary": 3672,
      "ĠCash": 3673,
      "Ġconform": 3674,
      "Ġalternative": 3675,
      "Ġsearch": 3676,
      "PA": 3677,
      "Ġfun": 3678,
      "orage": 3679,
      "Ġpreferred": 3680,
      "Ġaudits": 3681,
      "Ġlonger": 3682,
      "Ġresponsible": 3683,
      "Ġavoid": 3684,
      "Ġsignificantly": 3685,
      "urren": 3686,
      "Ġdoubt": 3687,
      "istered": 3688,
      "emporary": 3689,
      "Ġded": 3690,
      "Ġmeeting": 3691,
      "reciation": 3692,
      "Ġhighly": 3693,
      "cription": 3694,
      "Ġenact": 3695,
      "Ġconcur": 3696,
      "Ġsupply": 3697,
      "Ġrenew": 3698,
      "Ġfourth": 3699,
      "co": 3700,
      "Ġsource": 3701,
      "Ġbusinesses": 3702,
      "ITY": 3703,
      "yer": 3704,
      "Ġvalues": 3705,
      "Ġstep": 3706,
      "ĠCr": 3707,
      "ĠAlabama": 3708,
      "Ġclient": 3709,
      "Ġ1987": 3710,
      "ids": 3711,
      "Ġshows": 3712,
      "Ġsatisf": 3713,
      "ĠMe": 3714,
      "Ġadequate": 3715,
      "amm": 3716,
      "struct": 3717,
      "Ġpending": 3718,
      "Ġcompetition": 3719,
      "Ġaccrued": 3720,
      "Ġorders": 3721,
      "Ġconsistent": 3722,
      "ĠSpec": 3723,
      "Ġtypes": 3724,
      "luded": 3725,
      "Ġvariety": 3726,
      "Ġiniti": 3727,
      "ancy": 3728,
      "inical": 3729,
      "Ġprosecutor": 3730,
      "band": 3731,
      "Ġcivil": 3732,
      "TIN": 3733,
      "%.": 3734,
      "78": 3735,
      "Ġplea": 3736,
      "Ġpartner": 3737,
      "IES": 3738,
      "ANT": 3739,
      "ontinued": 3740,
      "ĠJames": 3741,
      "Ġadvis": 3742,
      "ĠMrs": 3743,
      "ook": 3744,
      "ections": 3745,
      "ĠX": 3746,
      "ald": 3747,
      "ift": 3748,
      "Ġside": 3749,
      "Ġcontact": 3750,
      "comm": 3751,
      "Ġminor": 3752,
      "ats": 3753,
      "sych": 3754,
      "ĠLoan": 3755,
      "ĠFac": 3756,
      "Ġlittle": 3757,
      "Ġdeposits": 3758,
      "Ġri": 3759,
      "Ġsegment": 3760,
      "ĠACC": 3761,
      "Ġvolunt": 3762,
      "ĠIncorporated": 3763,
      "oted": 3764,
      "Ġemployer": 3765,
      "Ġhapp": 3766,
      "UED": 3767,
      "Ġreasonably": 3768,
      "ĠJudge": 3769,
      "Ġrap": 3770,
      "ĠCert": 3771,
      "TER": 3772,
      "Ġtop": 3773,
      "Ġpermitted": 3774,
      "time": 3775,
      "Ġwhy": 3776,
      "Ġseeking": 3777,
      "IF": 3778,
      "ĠWhat": 3779,
      "Ġtri": 3780,
      "osure": 3781,
      "Ġappellate": 3782,
      "Ġrepresented": 3783,
      "Ġimposed": 3784,
      "Ġphot": 3785,
      "ĠDevelop": 3786,
      "house": 3787,
      "itional": 3788,
      "ĠService": 3789,
      "urb": 3790,
      "Ġamortization": 3791,
      "Ġwomen": 3792,
      "Ġconstitut": 3793,
      "ored": 3794,
      "Ġamendment": 3795,
      "Ġdoll": 3796,
      "elling": 3797,
      "ĠInformation": 3798,
      "br": 3799,
      "Ġattributable": 3800,
      "Ġpress": 3801,
      "rehens": 3802,
      "56": 3803,
      "Ġfoot": 3804,
      "Ġmach": 3805,
      "Ġ1986": 3806,
      "Ġserve": 3807,
      "Ġreports": 3808,
      "Ġpubl": 3809,
      "ĠEach": 3810,
      "Ġmental": 3811,
      "ites": 3812,
      "Ġwide": 3813,
      "ox": 3814,
      "Ġfather": 3815,
      "idge": 3816,
      "Ġface": 3817,
      "Ġborrowings": 3818,
      "Ġapproach": 3819,
      "augh": 3820,
      "Ġpe": 3821,
      "ĠLou": 3822,
      "ME": 3823,
      "unicip": 3824,
      "ĠCirc": 3825,
      "ĠSim": 3826,
      "ĠChrist": 3827,
      "Ġemployed": 3828,
      "Ġreach": 3829,
      "rupt": 3830,
      "mon": 3831,
      "MM": 3832,
      "Ġtrade": 3833,
      "ĠPar": 3834,
      "ĠJohnson": 3835,
      "Ġmaximum": 3836,
      "Ġvide": 3837,
      "Ġexception": 3838,
      "ĠGovern": 3839,
      "Ġprocedures": 3840,
      "Ġmus": 3841,
      "Ġnamed": 3842,
      "Ġlegislative": 3843,
      "OC": 3844,
      "yd": 3845,
      "Ġinstructions": 3846,
      "ĠMer": 3847,
      "Ġidentified": 3848,
      "Ġpatients": 3849,
      "ĠRet": 3850,
      "Ġimmediately": 3851,
      "Ġrecovery": 3852,
      "Ġallowance": 3853,
      "Ġwhose": 3854,
      "ĠâĢĺâĢĺ": 3855,
      "aps": 3856,
      "Ġholders": 3857,
      "Ġstores": 3858,
      "Ġindividuals": 3859,
      "Ġparts": 3860,
      "atures": 3861,
      "Ġfraud": 3862,
      "ik": 3863,
      "Ġsimply": 3864,
      "Ġanim": 3865,
      "Ġsecured": 3866,
      "imbur": 3867,
      "Ġregulation": 3868,
      "ĠPark": 3869,
      "face": 3870,
      "ams": 3871,
      "Ġassert": 3872,
      "Ġcard": 3873,
      "ĠProduct": 3874,
      "ĠIndust": 3875,
      "ĠSome": 3876,
      "Ġwent": 3877,
      "Ġunderlying": 3878,
      "sc": 3879,
      "thing": 3880,
      "right": 3881,
      "Ġconsequ": 3882,
      "Ġmind": 3883,
      "Ġstri": 3884,
      "ĠLa": 3885,
      "Ġtesting": 3886,
      "wh": 3887,
      "Ġclosing": 3888,
      "ĠCenter": 3889,
      "Ġdeposit": 3890,
      "Ġfurn": 3891,
      "Ġ2001": 3892,
      "Ġthereof": 3893,
      "ĠHow": 3894,
      "tt": 3895,
      "Ġge": 3896,
      "Ġcountry": 3897,
      "Ġthreat": 3898,
      "CON": 3899,
      "ĠAsse": 3900,
      "Ġcateg": 3901,
      "Ġtool": 3902,
      "Ġuses": 3903,
      "TINUED": 3904,
      "Ġdiscount": 3905,
      "ĠTechn": 3906,
      "ĠGen": 3907,
      "Ġroad": 3908,
      "ming": 3909,
      "Ġpaper": 3910,
      "more": 3911,
      "63": 3912,
      "Ġprove": 3913,
      "Ġfelony": 3914,
      "Ġvac": 3915,
      "ĠRespond": 3916,
      "icated": 3917,
      "missible": 3918,
      "Ġsets": 3919,
      "Ġperformed": 3920,
      "Ġ58": 3921,
      "entures": 3922,
      "Ġintention": 3923,
      "Ġcovered": 3924,
      "Ġdang": 3925,
      "lict": 3926,
      "Ġprevious": 3927,
      "Ġmoved": 3928,
      "ĠLL": 3929,
      "Ġearlier": 3930,
      "ĠChe": 3931,
      "Ġinstitutions": 3932,
      "Ġgrounds": 3933,
      "Ġreversed": 3934,
      "ĠHere": 3935,
      "Ġeducation": 3936,
      "ĠIowa": 3937,
      "Ġhab": 3938,
      "ĠSUBS": 3939,
      "stance": 3940,
      "ĠWil": 3941,
      "Ġdil": 3942,
      "ĠDivision": 3943,
      "ĠRobert": 3944,
      "Ġthereto": 3945,
      "Ġbring": 3946,
      "77": 3947,
      "ĠRich": 3948,
      "Ġresid": 3949,
      "Ġpoints": 3950,
      "Ġaware": 3951,
      "Ġproduce": 3952,
      "Ġpolit": 3953,
      "ĠDes": 3954,
      "Ġstrateg": 3955,
      "Ġdomestic": 3956,
      "98": 3957,
      "\".": 3958,
      "64": 3959,
      "ĠDa": 3960,
      "Ġfrequ": 3961,
      "Ġsays": 3962,
      "CL": 3963,
      "Ġbanks": 3964,
      "aul": 3965,
      "ĠStandards": 3966,
      "Ġspecified": 3967,
      "Ġfeel": 3968,
      "pec": 3969,
      "Ġdiscussion": 3970,
      "ĠIII": 3971,
      "Ġcult": 3972,
      "Ġdocument": 3973,
      "Ġinventory": 3974,
      "Ġpain": 3975,
      "ister": 3976,
      "Ġlisted": 3977,
      "Al": 3978,
      "organ": 3979,
      "Ġmultiple": 3980,
      "Ġrental": 3981,
      "ĠColor": 3982,
      "lobal": 3983,
      "Ġtruck": 3984,
      "IDI": 3985,
      "Ġdig": 3986,
      "ĠDec": 3987,
      "Ġscient": 3988,
      "URT": 3989,
      "rine": 3990,
      "Ġdecided": 3991,
      "Ġmaturity": 3992,
      "Ġdecree": 3993,
      "Ġexamination": 3994,
      "Ġassessment": 3995,
      "Ġsavings": 3996,
      "ls": 3997,
      "IG": 3998,
      "onduct": 3999,
      "Ġmodel": 4000,
      "Ġbillion": 4001,
      "Ġnegoti": 4002,
      "CO": 4003,
      "aware": 4004,
      "Ġinterpretation": 4005,
      "Ġcurren": 4006,
      "ville": 4007,
      "Ġfar": 4008,
      "ategy": 4009,
      "lin": 4010,
      "ĠOP": 4011,
      "Ġonce": 4012,
      "Ġyet": 4013,
      "Ġdirected": 4014,
      "Ġcomplex": 4015,
      "Ġincident": 4016,
      "Ġ...": 4017,
      "airman": 4018,
      "Ġtarg": 4019,
      "Ġweight": 4020,
      "IDIAR": 4021,
      "ĠSUBSIDIAR": 4022,
      "Ġdelivery": 4023,
      "ude": 4024,
      "Ġexpand": 4025,
      "Ġnormal": 4026,
      "62": 4027,
      "Ġacross": 4028,
      "ĠOf": 4029,
      "ĠPet": 4030,
      "oking": 4031,
      "Ġpenalty": 4032,
      "Ġunable": 4033,
      "ĠSEC": 4034,
      "ump": 4035,
      "osition": 4036,
      "mpt": 4037,
      "unity": 4038,
      "Ġaway": 4039,
      "Ġprosecution": 4040,
      "ivity": 4041,
      "Ġcable": 4042,
      "Ġvolume": 4043,
      "Ġarm": 4044,
      "ĠBusiness": 4045,
      "NA": 4046,
      "Ġbehavi": 4047,
      "Ġproduced": 4048,
      "ression": 4049,
      "Ġshowing": 4050,
      "most": 4051,
      "ĠLegisl": 4052,
      "ĠAdministr": 4053,
      "ourn": 4054,
      "Ġcontains": 4055,
      "Ġmonthly": 4056,
      "ĠRep": 4057,
      "Ġplants": 4058,
      "uations": 4059,
      "61": 4060,
      "Ġimproper": 4061,
      "Ġattack": 4062,
      "ĠWash": 4063,
      ".âĢĻ": 4064,
      "Ġobjection": 4065,
      "Ġreimbur": 4066,
      "Ġdissent": 4067,
      "TA": 4068,
      "ancer": 4069,
      "idd": 4070,
      "ĠOp": 4071,
      "Ġcarri": 4072,
      "ĠAdditionally": 4073,
      "ĠSuperior": 4074,
      "vere": 4075,
      "entially": 4076,
      "Ġstaff": 4077,
      "Ġprofessional": 4078,
      "Ġpack": 4079,
      "omas": 4080,
      "ĠLouis": 4081,
      "Ġdeed": 4082,
      "itable": 4083,
      "Ġdates": 4084,
      "selves": 4085,
      "Ġordered": 4086,
      "Ġunderstand": 4087,
      "Ġsituation": 4088,
      "Ġsexual": 4089,
      "Ġreturned": 4090,
      "Ġlives": 4091,
      "Ġcla": 4092,
      "Ġcontinuing": 4093,
      "Ġide": 4094,
      "Ġallows": 4095,
      "ingu": 4096,
      "Ġinjuries": 4097,
      "Ġparticularly": 4098,
      "Ġnothing": 4099,
      "ips": 4100,
      "ĠAb": 4101,
      "Ġwarrants": 4102,
      "Ġselling": 4103,
      "Ġwhom": 4104,
      "Ġhours": 4105,
      "Ġparents": 4106,
      "Ġarticle": 4107,
      "ĠJack": 4108,
      "Ġneeded": 4109,
      "Ġcame": 4110,
      "come": 4111,
      "ulative": 4112,
      "TH": 4113,
      "Ġkind": 4114,
      "Ġinstruct": 4115,
      "Ġbreach": 4116,
      "Ġprojects": 4117,
      "Ġmotor": 4118,
      "Ġprocedure": 4119,
      "Ġfactor": 4120,
      "Ġratio": 4121,
      "aith": 4122,
      "Ġsubd": 4123,
      "Ġtraining": 4124,
      "Ġfri": 4125,
      "enge": 4126,
      "aving": 4127,
      "inal": 4128,
      "Ġtimely": 4129,
      "Ġ68": 4130,
      "Ġinternal": 4131,
      "Ġprocessing": 4132,
      "ots": 4133,
      "ĠCOMP": 4134,
      "apter": 4135,
      "Ġrend": 4136,
      "usband": 4137,
      "che": 4138,
      "ĠJr": 4139,
      "ounds": 4140,
      "Ġdelay": 4141,
      "iding": 4142,
      "Ġdifference": 4143,
      "airs": 4144,
      "ĠAlso": 4145,
      "ishing": 4146,
      "Ġsize": 4147,
      "Ġelements": 4148,
      "Ġtelephone": 4149,
      "Ġinstitution": 4150,
      "Ġprev": 4151,
      "idel": 4152,
      "atch": 4153,
      "Ġhimself": 4154,
      "Ġpatient": 4155,
      "lege": 4156,
      "Ġagent": 4157,
      "ivered": 4158,
      "ique": 4159,
      "Ġamortized": 4160,
      "Ġschedule": 4161,
      "Ġspeed": 4162,
      "Ġsomething": 4163,
      "Ġacquire": 4164,
      "ĠWork": 4165,
      "Ġinvolving": 4166,
      "Ġrelease": 4167,
      "Ġofficial": 4168,
      "Ġordin": 4169,
      "Ġalways": 4170,
      "Ġgenerated": 4171,
      "ĠColorado": 4172,
      "ĠCOURT": 4173,
      "Ġoffices": 4174,
      "ĠSecond": 4175,
      "thern": 4176,
      "ona": 4177,
      "Ġtemporary": 4178,
      "Ġbrok": 4179,
      "Ġgave": 4180,
      "Ġhalf": 4181,
      "emption": 4182,
      "Ġ59": 4183,
      "like": 4184,
      "ĠACCOU": 4185,
      "ected": 4186,
      "ĠBrown": 4187,
      "Ġfarm": 4188,
      "Ġusually": 4189,
      "Ġprejudice": 4190,
      "Ġtheory": 4191,
      "Ġcontent": 4192,
      "rehensive": 4193,
      ".'": 4194,
      "Ġelimin": 4195,
      "Ġsupported": 4196,
      "Ġrestrictions": 4197,
      "Ġjob": 4198,
      "Ġdivision": 4199,
      "ĠKing": 4200,
      "Ġstrategy": 4201,
      "rew": 4202,
      "ĠDevelopment": 4203,
      "ĠDist": 4204,
      "79": 4205,
      "Ġdoing": 4206,
      "Ġce": 4207,
      "ffici": 4208,
      "Ġpreced": 4209,
      "nergy": 4210,
      "owned": 4211,
      "Ġimpair": 4212,
      "Ġelig": 4213,
      "fe": 4214,
      "ĠMill": 4215,
      "ĠSales": 4216,
      "ĠCircuit": 4217,
      "Ġgains": 4218,
      "idav": 4219,
      "ĠBu": 4220,
      "Ġey": 4221,
      "Ġexposure": 4222,
      "Ġlearning": 4223,
      "Ġowns": 4224,
      "Ġ2002": 4225,
      "ĠTax": 4226,
      "west": 4227,
      "ĠSw": 4228,
      "Ġrespective": 4229,
      "Ġconvicted": 4230,
      "Ġdisch": 4231,
      "Ġperman": 4232,
      "vertible": 4233,
      "IV": 4234,
      "gia": 4235,
      "Ġconflict": 4236,
      "AND": 4237,
      "Ġweighted": 4238,
      "pecially": 4239,
      "Ġ($": 4240,
      "ĠNev": 4241,
      "ancell": 4242,
      "ĠEnt": 4243,
      "Ġdifferences": 4244,
      "Ġprincipally": 4245,
      "Ġinvolve": 4246,
      "ening": 4247,
      "Ġassumed": 4248,
      "Ġ\"[": 4249,
      "Ġconsists": 4250,
      "Ġelected": 4251,
      "CONTINUED": 4252,
      "Ġdeb": 4253,
      "Ġbill": 4254,
      "ĠChar": 4255,
      "52": 4256,
      "Ġtort": 4257,
      "Ġtoday": 4258,
      "sey": 4259,
      "ĠArkansas": 4260,
      "ĠInternet": 4261,
      "Ġapparent": 4262,
      "ĠLt": 4263,
      "enty": 4264,
      "Ġdenying": 4265,
      "Ġdocuments": 4266,
      "Ġautomobile": 4267,
      "Ġtelevision": 4268,
      "erk": 4269,
      "Ġpresence": 4270,
      "AP": 4271,
      "Ġimprovements": 4272,
      "Ġaffiliates": 4273,
      "ĠExp": 4274,
      "Ġindustrial": 4275,
      "Ġabsence": 4276,
      "Ġstructure": 4277,
      "gress": 4278,
      "Ġsens": 4279,
      "ng": 4280,
      "Ġfranch": 4281,
      "Ġcomply": 4282,
      "ference": 4283,
      "lish": 4284,
      "inois": 4285,
      "Ġreverse": 4286,
      "Ġenough": 4287,
      "otal": 4288,
      "Ġpopulation": 4289,
      "Ġlate": 4290,
      "ĠProperty": 4291,
      "Ġconsumer": 4292,
      "Ġappellants": 4293,
      "outhern": 4294,
      "Ġunf": 4295,
      "51": 4296,
      "Ġpers": 4297,
      "Ġdeemed": 4298,
      "Ġinsurer": 4299,
      "Ġ1934": 4300,
      "Ġlocation": 4301,
      "Ġdistin": 4302,
      "Ġoperate": 4303,
      "chan": 4304,
      "BER": 4305,
      "Ġcontributions": 4306,
      "OP": 4307,
      "Ġdenial": 4308,
      "ATIONS": 4309,
      "ĠDo": 4310,
      "Ġamend": 4311,
      "iter": 4312,
      "Ġanticipated": 4313,
      "Ġteac": 4314,
      "53": 4315,
      "quis": 4316,
      "writ": 4317,
      "ĠWorld": 4318,
      "Ġ1985": 4319,
      "Ġhot": 4320,
      "Ġcenter": 4321,
      "ĠThomas": 4322,
      "rol": 4323,
      "Ġtypically": 4324,
      "Ġresol": 4325,
      "ĠLife": 4326,
      "Ġexperienced": 4327,
      "Ġcombined": 4328,
      "oph": 4329,
      "Ġwind": 4330,
      "Ġaffidav": 4331,
      "Ġmal": 4332,
      "ĠSystems": 4333,
      "ĠRev": 4334,
      "Ġchallenge": 4335,
      "Ġrole": 4336,
      "Ġdoctrine": 4337,
      "Ġfocus": 4338,
      "Ġoffers": 4339,
      "ĠSH": 4340,
      "Ġpresentation": 4341,
      "iced": 4342,
      "54": 4343,
      "SION": 4344,
      "ĠLtd": 4345,
      "ĠMontana": 4346,
      "lation": 4347,
      "ĠSte": 4348,
      "ĠMcC": 4349,
      "Ġcompetitors": 4350,
      "Ġclinical": 4351,
      "Ġfuel": 4352,
      "ĠNon": 4353,
      "Ġseven": 4354,
      "Ġdismissed": 4355,
      "Ġliving": 4356,
      "Ġwriting": 4357,
      "ĠMot": 4358,
      "ĠFacility": 4359,
      "ĠWilliams": 4360,
      "Ġheart": 4361,
      "Ġsaw": 4362,
      "ordinated": 4363,
      "Ġcontrary": 4364,
      "Ġelection": 4365,
      "Ġwrite": 4366,
      "ayment": 4367,
      "Ġexplained": 4368,
      "Ġcopy": 4369,
      "ging": 4370,
      "onn": 4371,
      "Ġlimits": 4372,
      "icro": 4373,
      "Ġeight": 4374,
      "Ġlargest": 4375,
      "Ġtherap": 4376,
      "ĠSecurity": 4377,
      "Ġflo": 4378,
      "ico": 4379,
      "ilt": 4380,
      "Ġgranting": 4381,
      "Ġcontext": 4382,
      "88": 4383,
      "Ġsheet": 4384,
      "Ġadvertising": 4385,
      "Ġagencies": 4386,
      "utions": 4387,
      "Ġdiscovery": 4388,
      "Ġespecially": 4389,
      "Ġconstruct": 4390,
      "ĠIllinois": 4391,
      "Ġtechnical": 4392,
      "Ġdest": 4393,
      "ength": 4394,
      "ota": 4395,
      "ĠPower": 4396,
      "ĠSUBSIDIARIES": 4397,
      "ĠHis": 4398,
      "back": 4399,
      "Ġdecline": 4400,
      "ĠNe": 4401,
      "ĠAlaska": 4402,
      "Ġmist": 4403,
      "Ġachieve": 4404,
      "ĠAny": 4405,
      "Ġdistributions": 4406,
      "Ġpsych": 4407,
      "âĢŁ": 4408,
      "ĠGeorgia": 4409,
      "iew": 4410,
      "ĠEl": 4411,
      "Ġresidential": 4412,
      "ĠEnergy": 4413,
      "ĠTw": 4414,
      "Ġmethods": 4415,
      "ishes": 4416,
      "Ġseen": 4417,
      "Ġdefault": 4418,
      "Ġpropri": 4419,
      "ĠSchool": 4420,
      "Ġensure": 4421,
      "ĠRespondent": 4422,
      "Ġduly": 4423,
      "ĠLong": 4424,
      "Ġchanged": 4425,
      "ĠAust": 4426,
      "Ġgiving": 4427,
      "Ġunderstanding": 4428,
      "Ġdeveloping": 4429,
      "Ġroom": 4430,
      "Ġintroduced": 4431,
      "ĠLegislature": 4432,
      "Ġbanking": 4433,
      "lant": 4434,
      "ociety": 4435,
      "Ex": 4436,
      "Ġsites": 4437,
      "Ġaccomp": 4438,
      "ĠJones": 4439,
      "Ġreplace": 4440,
      "Ġstra": 4441,
      "ĠOwn": 4442,
      "Ġmerger": 4443,
      "Ġlab": 4444,
      "Ġtext": 4445,
      "Ġvote": 4446,
      "ĠMat": 4447,
      "Ġcut": 4448,
      "Ġcoven": 4449,
      "Ġrestruct": 4450,
      "Ġrequiring": 4451,
      "Ġclaimed": 4452,
      "Ġviolated": 4453,
      "iii": 4454,
      "ĠGod": 4455,
      "cast": 4456,
      "ĠPRO": 4457,
      "Ġconstitute": 4458,
      "emper": 4459,
      "Ġadversely": 4460,
      "Ġmunicip": 4461,
      "Ġnumerous": 4462,
      "ĠDelaware": 4463,
      "Ġtim": 4464,
      "ĠAL": 4465,
      "RI": 4466,
      "Ġdelivered": 4467,
      "Ġfairly": 4468,
      "ointed": 4469,
      "Ġessential": 4470,
      "Ġquarterly": 4471,
      "oke": 4472,
      "itiz": 4473,
      "urs": 4474,
      "Ġventure": 4475,
      "room": 4476,
      "ĠON": 4477,
      "Ġspecies": 4478,
      "Ġfollowed": 4479,
      "Ġleased": 4480,
      "Ala": 4481,
      "ĠChairman": 4482,
      "mits": 4483,
      "Ġdecla": 4484,
      "Ġgroups": 4485,
      "Ġuseful": 4486,
      "gl": 4487,
      "Ġadoption": 4488,
      "Ġstudies": 4489,
      "Ġuncertain": 4490,
      "Ġdepreciation": 4491,
      "ĠâĢľ[": 4492,
      "ĠMoreover": 4493,
      "ellees": 4494,
      "ĠProf": 4495,
      "hood": 4496,
      "Ġthereafter": 4497,
      "Ġterminated": 4498,
      "Ġ2003": 4499,
      "Ġsurv": 4500,
      "Ġpractices": 4501,
      "ched": 4502,
      "Ġrecon": 4503,
      "01": 4504,
      "ĠGerm": 4505,
      "Ġleave": 4506,
      "Ġsubs": 4507,
      "Ġfaith": 4508,
      "aded": 4509,
      "issipp": 4510,
      "Ġawarded": 4511,
      "section": 4512,
      "Ġste": 4513,
      "ĠPat": 4514,
      "Ġgun": 4515,
      "ĠPurchase": 4516,
      "Ġuncon": 4517,
      "Ġhusband": 4518,
      "ĠRo": 4519,
      "Ġmisc": 4520,
      "issippi": 4521,
      "Ġarising": 4522,
      "Ġrelationships": 4523,
      "Ġrestaur": 4524,
      "ĠPac": 4525,
      "rick": 4526,
      "Ġwithd": 4527,
      "Ġmention": 4528,
      "Ġsentencing": 4529,
      "Ġrecently": 4530,
      "Ġneither": 4531,
      "Ġcells": 4532,
      "uth": 4533,
      "incorporated": 4534,
      "Ġstraight": 4535,
      "pite": 4536,
      "Ġqualified": 4537,
      "ios": 4538,
      "Ġworkers": 4539,
      "Ġ99": 4540,
      "Ġleading": 4541,
      "Ġtechnologies": 4542,
      "ĠCanada": 4543,
      "Ġdiagn": 4544,
      "we": 4545,
      "ĠBased": 4546,
      "riage": 4547,
      "agraph": 4548,
      "Ġseries": 4549,
      "Ġever": 4550,
      "know": 4551,
      "Ġheard": 4552,
      "Ġreached": 4553,
      "Ġdisclosure": 4554,
      "Ġpatent": 4555,
      "ĠWashington": 4556,
      "ĠACCOUNT": 4557,
      "Ġprospect": 4558,
      "Ġinstead": 4559,
      "retary": 4560,
      "Ġplain": 4561,
      "amily": 4562,
      "Ġadvant": 4563,
      "Ġsuccessful": 4564,
      "ww": 4565,
      "ĠMississippi": 4566,
      "Ġsure": 4567,
      "owers": 4568,
      "Ġenhance": 4569,
      "//": 4570,
      "ĠResearch": 4571,
      "uties": 4572,
      "Ġserious": 4573,
      "etic": 4574,
      "Ġelement": 4575,
      "Ġemerg": 4576,
      "ai": 4577,
      "aming": 4578,
      "Ġconting": 4579,
      "Ġmerely": 4580,
      "Ġexpans": 4581,
      "Ġmanufacturers": 4582,
      "Ġur": 4583,
      "Ġnecessarily": 4584,
      "Ġvideo": 4585,
      "istics": 4586,
      "Ġbound": 4587,
      "Ġdispute": 4588,
      "Ġcontention": 4589,
      "struction": 4590,
      "ĠVir": 4591,
      "wood": 4592,
      "Ġchemical": 4593,
      "cil": 4594,
      "lear": 4595,
      "ĠDep": 4596,
      "Ġdepartment": 4597,
      "ĠMortgage": 4598,
      "Ġarrangements": 4599,
      "Ġdefinition": 4600,
      "Ġ1984": 4601,
      "Ġbad": 4602,
      "ĠSan": 4603,
      "Ġaggrav": 4604,
      "Ġthemselves": 4605,
      "ĠBlack": 4606,
      "Ġpolitical": 4607,
      "related": 4608,
      "\",": 4609,
      "Ġsupporting": 4610,
      "Ġassistance": 4611,
      "ĠDavid": 4612,
      "ribute": 4613,
      "Ġreve": 4614,
      "ĠIS": 4615,
      "ĠAf": 4616,
      "Ġinvestigation": 4617,
      "ĠInter": 4618,
      "Ġassumptions": 4619,
      "including": 4620,
      "Ġyield": 4621,
      "Ġlog": 4622,
      "Ġexpects": 4623,
      "erences": 4624,
      "field": 4625,
      "umulative": 4626,
      "ĠRichard": 4627,
      "aker": 4628,
      "rep": 4629,
      "ĠDis": 4630,
      "OLD": 4631,
      "Ġconstitution": 4632,
      "ĠCivil": 4633,
      "âĢľ": 4634,
      "Ġinn": 4635,
      "ĠJJ": 4636,
      "ows": 4637,
      "cont": 4638,
      "Ġmaterially": 4639,
      "Ġdiscip": 4640,
      "Ġrepresents": 4641,
      "ĠRevenue": 4642,
      "AB": 4643,
      "Ġconver": 4644,
      "Ġassault": 4645,
      "Ġscope": 4646,
      "Ġrobber": 4647,
      "AGE": 4648,
      "VE": 4649,
      "Ġesc": 4650,
      "Ġconversion": 4651,
      "Ġexecuted": 4652,
      "ians": 4653,
      "ebted": 4654,
      "ĠHoldings": 4655,
      "Ġmonitor": 4656,
      "Ġsenior": 4657,
      "ĠCost": 4658,
      "Ġdividend": 4659,
      "Ġcurrency": 4660,
      "Ġformed": 4661,
      "Ġstay": 4662,
      "Ġoperates": 4663,
      "ifications": 4664,
      "ps": 4665,
      "ĠTre": 4666,
      "Ġreflected": 4667,
      "Ġselected": 4668,
      "Ġcancer": 4669,
      "Ġoperated": 4670,
      "Ġretirement": 4671,
      "ĠBrit": 4672,
      "Ġrespects": 4673,
      "het": 4674,
      "isable": 4675,
      "ircraft": 4676,
      "Ġconcept": 4677,
      "will": 4678,
      "mer": 4679,
      "ĠImp": 4680,
      "ugh": 4681,
      "Ġmix": 4682,
      "ĠAir": 4683,
      "ĠJer": 4684,
      "QU": 4685,
      "Ġstand": 4686,
      "izations": 4687,
      "Ġhistorical": 4688,
      "Th": 4689,
      "Alaska": 4690,
      "Ġtarget": 4691,
      "ades": 4692,
      "Ġvaluation": 4693,
      "ĠUnion": 4694,
      "coh": 4695,
      "ĠAnal": 4696,
      "Ġ/": 4697,
      "DI": 4698,
      "Ġextra": 4699,
      "Ġsupplement": 4700,
      "Ġaccur": 4701,
      "Ġseason": 4702,
      "Ġdeclared": 4703,
      "Ġlawsu": 4704,
      "Ġstorage": 4705,
      "cohol": 4706,
      "ĠTotal": 4707,
      "Ġfavorable": 4708,
      "Ġrout": 4709,
      "Ġelse": 4710,
      "Ġemph": 4711,
      "ĠStreet": 4712,
      "Ġapplies": 4713,
      "Ġcompr": 4714,
      "Ġliable": 4715,
      "Ġwaste": 4716,
      "ĠGas": 4717,
      "Ġexistence": 4718,
      "ousing": 4719,
      "emic": 4720,
      "Ġquant": 4721,
      "Ġprepared": 4722,
      "head": 4723,
      "rate": 4724,
      "Ġspe": 4725,
      "Ġdepend": 4726,
      "Ġearned": 4727,
      "Ġrendered": 4728,
      "ĠProducts": 4729,
      "ĠRights": 4730,
      "Ġpositions": 4731,
      "Ġordinary": 4732,
      "Ġprohib": 4733,
      "Ġconcent": 4734,
      "def": 4735,
      "ĠMart": 4736,
      "Ġcapitalized": 4737,
      "Ġ69": 4738,
      "ipt": 4739,
      "Ġnegative": 4740,
      "ĠData": 4741,
      "Ġrecommend": 4742,
      "Ġlink": 4743,
      "apan": 4744,
      "ĠHigh": 4745,
      "Ġmark": 4746,
      "ĠMet": 4747,
      "Ġpan": 4748,
      "Ġfinance": 4749,
      "ographic": 4750,
      "ael": 4751,
      "aily": 4752,
      "Ġequivalents": 4753,
      "ĠCir": 4754,
      "Ġoral": 4755,
      "Ġcompens": 4756,
      "Ġlive": 4757,
      "Ġallegations": 4758,
      "ĠCom": 4759,
      "aser": 4760,
      "Ġdeclar": 4761,
      "ĠPenn": 4762,
      "Ġfront": 4763,
      "Ġcited": 4764,
      "Ġexhibit": 4765,
      "Ġdisability": 4766,
      "Ġdedu": 4767,
      "Ġopportunities": 4768,
      "Ġentry": 4769,
      "Ġvary": 4770,
      "Ġtalk": 4771,
      "EF": 4772,
      "Ġidentify": 4773,
      "Ġ1983": 4774,
      "Ġoccas": 4775,
      "71": 4776,
      "Ġways": 4777,
      "ĠOffice": 4778,
      "Ġemb": 4779,
      "where": 4780,
      "ishment": 4781,
      "Ġexclusive": 4782,
      "Ġexercisable": 4783,
      "liers": 4784,
      "Ġlay": 4785,
      "Ġrang": 4786,
      "arters": 4787,
      "igned": 4788,
      "Ġauthorities": 4789,
      "ebtedness": 4790,
      "Ġinqu": 4791,
      "Ġrein": 4792,
      "ĠFarm": 4793,
      "ership": 4794,
      "Ġ,": 4795,
      "Ġmechan": 4796,
      "Ġtravel": 4797,
      "ĠMany": 4798,
      "Ġprivile": 4799,
      "ĠCurrent": 4800,
      "Ġaccum": 4801,
      "Ġallocated": 4802,
      "Ġdevices": 4803,
      "Ġdefect": 4804,
      "RA": 4805,
      "ĠAM": 4806,
      "Ġtemper": 4807,
      "Ġpublished": 4808,
      "Ġdependent": 4809,
      "ĠJe": 4810,
      "amination": 4811,
      "Ġimpairment": 4812,
      "eration": 4813,
      "Ġthought": 4814,
      "Ġclause": 4815,
      "utual": 4816,
      "Ġattention": 4817,
      "ĠGreen": 4818,
      "Ġ2004": 4819,
      "amb": 4820,
      "Ġpet": 4821,
      "ush": 4822,
      "Ġduties": 4823,
      "ches": 4824,
      "Ġarbitration": 4825,
      "ned": 4826,
      "ĠSubsidi": 4827,
      "ĠProgram": 4828,
      "Ġobserved": 4829,
      "Ġpark": 4830,
      "ĠMary": 4831,
      "efore": 4832,
      "ĠCor": 4833,
      "ĠDen": 4834,
      "Ġextended": 4835,
      "Ġtrading": 4836,
      "ago": 4837,
      "fficiency": 4838,
      "ician": 4839,
      "Ġ--------": 4840,
      "rie": 4841,
      "reng": 4842,
      "Ġlength": 4843,
      "Ġstop": 4844,
      "UC": 4845,
      "Ġpurchases": 4846,
      "ĠAcquis": 4847,
      "Ġtend": 4848,
      "Ġappointed": 4849,
      "Ġmotions": 4850,
      "Ġreserve": 4851,
      "Ġenj": 4852,
      "ster": 4853,
      "Ġexpressed": 4854,
      "Ġ78": 4855,
      "EP": 4856,
      "Ġlarger": 4857,
      "Ġprison": 4858,
      "Ġknew": 4859,
      "rary": 4860,
      "ouncil": 4861,
      "Ġopt": 4862,
      "Ġsubsequently": 4863,
      "Ġassigned": 4864,
      "Ġsound": 4865,
      "ung": 4866,
      "Ġtraditional": 4867,
      "Ġexpansion": 4868,
      "ĠTele": 4869,
      "log": 4870,
      "ĠAN": 4871,
      "ulations": 4872,
      "Ġarri": 4873,
      "ĠJapan": 4874,
      "Ġentity": 4875,
      "Ġerrone": 4876,
      "CS": 4877,
      "Ġcarried": 4878,
      "Ġ32": 4879,
      "Ġcauses": 4880,
      "Ġclients": 4881,
      "ĠCOR": 4882,
      "Ġprobation": 4883,
      "Ġdisposition": 4884,
      "Ġappealed": 4885,
      "Ġyoung": 4886,
      "Ġpip": 4887,
      "ĠBur": 4888,
      "Ġ|": 4889,
      "ston": 4890,
      "ART": 4891,
      "Ġforms": 4892,
      "Ġmerch": 4893,
      "Ġroy": 4894,
      "ĠMedic": 4895,
      "ĠREL": 4896,
      "ĠEven": 4897,
      "oe": 4898,
      "Ġnight": 4899,
      "Ġinformed": 4900,
      "ĠPort": 4901,
      "NERS": 4902,
      "Ġvoting": 4903,
      "Ġju": 4904,
      "itch": 4905,
      "Ġsympt": 4906,
      "Ġreimburse": 4907,
      "Ġ$.": 4908,
      "Ġacknow": 4909,
      "Ġ2010": 4910,
      "ĠProxy": 4911,
      "Ġtherein": 4912,
      "Ġexec": 4913,
      "ĠMs": 4914,
      "Ġeligible": 4915,
      "ĠHol": 4916,
      "Ġthereby": 4917,
      "comp": 4918,
      "usal": 4919,
      "Ġsustained": 4920,
      "Ġsafe": 4921,
      "Ġsuppliers": 4922,
      "Ġ123": 4923,
      "Ġrobbery": 4924,
      "ĠNor": 4925,
      ")).": 4926,
      "ĠMon": 4927,
      "Ġtraffic": 4928,
      "Ġbelieved": 4929,
      "Ġaspect": 4930,
      "Ġsurface": 4931,
      "action": 4932,
      "Ġappoint": 4933,
      "ĠMost": 4934,
      "Ġattempted": 4935,
      "well": 4936,
      "mbly": 4937,
      "alties": 4938,
      "Ġpages": 4939,
      "Ġalmost": 4940,
      "van": 4941,
      "Ġtown": 4942,
      "istent": 4943,
      "Ġenforcement": 4944,
      "Ġlegislation": 4945,
      "ĠFinally": 4946,
      "aches": 4947,
      "osis": 4948,
      "Ġtoward": 4949,
      "Ġallowing": 4950,
      "Ġunp": 4951,
      "Ġjustice": 4952,
      "ĠMex": 4953,
      "Ġattract": 4954,
      "Ġderived": 4955,
      "ĠEstate": 4956,
      "Ġsense": 4957,
      "ounced": 4958,
      "IM": 4959,
      "Ġcontinues": 4960,
      "Ġ2005": 4961,
      "Ġclean": 4962,
      "igu": 4963,
      "ĠMin": 4964,
      "ĠAnt": 4965,
      "Ġstation": 4966,
      "Ġgrand": 4967,
      "Ġinfluence": 4968,
      "ĠRiver": 4969,
      "ĠUpon": 4970,
      "ĠAfric": 4971,
      "Ġbehavior": 4972,
      "72": 4973,
      "ĠBoth": 4974,
      "ĠBal": 4975,
      "Ġcollection": 4976,
      "Ġforma": 4977,
      "Ġbrain": 4978,
      "Miss": 4979,
      "Ġcritical": 4980,
      "active": 4981,
      "Ġitem": 4982,
      "Ġreading": 4983,
      "road": 4984,
      "Ġalone": 4985,
      "Ġcat": 4986,
      "Ġdra": 4987,
      "YS": 4988,
      "ĠPaul": 4989,
      "It": 4990,
      "Ġid": 4991,
      "Ġdisag": 4992,
      "ĠRules": 4993,
      "Ġpremises": 4994,
      "Ġtransportation": 4995,
      "bert": 4996,
      "appro": 4997,
      "itting": 4998,
      "ĠWhe": 4999,
      "Ġasserted": 5000,
      "Ġcontribution": 5001,
      "Ġsan": 5002,
      "Ġprin": 5003,
      "Ġforec": 5004,
      "Ġstreng": 5005,
      "Ġcomplet": 5006,
      "ĠBenef": 5007,
      "Ġremedy": 5008,
      "ĠStockholders": 5009,
      "Ġclassified": 5010,
      "Ġsimple": 5011,
      "Ġresolution": 5012,
      "put": 5013,
      "Ġtreated": 5014,
      "Ġ79": 5015,
      "ĠEnd": 5016,
      "itary": 5017,
      "ĠEquity": 5018,
      "Ġinstant": 5019,
      "employ": 5020,
      "lac": 5021,
      "ĠCH": 5022,
      "Ġrepresenting": 5023,
      "raska": 5024,
      "73": 5025,
      "Ġexercised": 5026,
      "Ġpressure": 5027,
      "ĠDav": 5028,
      "ĠProperties": 5029,
      "Ġdraw": 5030,
      "Ġcomprehensive": 5031,
      "Ġ2012": 5032,
      "Ġ98": 5033,
      "ĠLand": 5034,
      "Ġorganization": 5035,
      "Ġtwenty": 5036,
      "hern": 5037,
      "Ġindicate": 5038,
      "Ġentities": 5039,
      "Ġteam": 5040,
      "Ġ2006": 5041,
      "Ġintends": 5042,
      "Ġinstrument": 5043,
      "Ġfunding": 5044,
      "Ġ2009": 5045,
      "Ġindebtedness": 5046,
      "ĠKan": 5047,
      "Ġrefused": 5048,
      "ĠJackson": 5049,
      "ĠReal": 5050,
      "bon": 5051,
      "Ġpermanent": 5052,
      "Ġattorneys": 5053,
      "Ġarguments": 5054,
      "Ġadmission": 5055,
      "under": 5056,
      "....": 5057,
      "See": 5058,
      "rim": 5059,
      "Ġfactual": 5060,
      "Ġpattern": 5061,
      "Ġreleased": 5062,
      "Ġlocations": 5063,
      "Ġextre": 5064,
      "Ġrepe": 5065,
      "Ġactive": 5066,
      "Ġconj": 5067,
      "ĠAssociates": 5068,
      "Ġcommunications": 5069,
      "Ġfailing": 5070,
      "Ġ`": 5071,
      "Ġ2007": 5072,
      "Ġfunctions": 5073,
      "Ġ1975": 5074,
      "Ġbecomes": 5075,
      "ludes": 5076,
      "ĠRed": 5077,
      "Ġsummar": 5078,
      "sured": 5079,
      "imately": 5080,
      "ENT": 5081,
      "Ġtrend": 5082,
      "umber": 5083,
      "Ġ2008": 5084,
      "Ġengineering": 5085,
      "ĠHaw": 5086,
      "76": 5087,
      "Ġ1980": 5088,
      "qual": 5089,
      "Ġblack": 5090,
      "Ġproviders": 5091,
      "ĠNebraska": 5092,
      "Ġreceipt": 5093,
      "ĠMor": 5094,
      "igan": 5095,
      "Ġbuildings": 5096,
      "Ġdecide": 5097,
      "Ġ88": 5098,
      "Ġstanding": 5099,
      "ĠRES": 5100,
      "Ġrealized": 5101,
      "Ġcontractual": 5102,
      "Ġmerit": 5103,
      "Ġ2011": 5104,
      "losure": 5105,
      "Ġ34": 5106,
      "Ġmisconduct": 5107,
      "Ġencour": 5108,
      "ĠSum": 5109,
      "Ġcommitment": 5110,
      "communications": 5111,
      "Â§": 5112,
      "Ġdrugs": 5113,
      "pper": 5114,
      "angible": 5115,
      "ground": 5116,
      "care": 5117,
      "missions": 5118,
      "Ġdiffer": 5119,
      "Ġpartially": 5120,
      "Ġcombination": 5121,
      "Ġprobable": 5122,
      "Ġquick": 5123,
      "Ġtell": 5124,
      "://": 5125,
      "onald": 5126,
      "74": 5127,
      "Ġforegoing": 5128,
      "Ġled": 5129,
      "istic": 5130,
      "Ġreflects": 5131,
      "ĠShareholders": 5132,
      "Ġhereby": 5133,
      "OW": 5134,
      "istant": 5135,
      "ha": 5136,
      "ĠQuarter": 5137,
      "Ġadministration": 5138,
      "Ġjurors": 5139,
      "lay": 5140,
      "Ġcomponent": 5141,
      "Ġjoined": 5142,
      "Ġmaintains": 5143,
      "Ġprocesses": 5144,
      "Ġtried": 5145,
      "idelines": 5146,
      "Ġminim": 5147,
      "Ġfluct": 5148,
      "illeg": 5149,
      "Ġexpire": 5150,
      "na": 5151,
      "Ġalcohol": 5152,
      "Ġoverr": 5153,
      "ifest": 5154,
      "Ġindemn": 5155,
      "Ġremains": 5156,
      "Ġadjustments": 5157,
      "Ġpret": 5158,
      "alse": 5159,
      "Ġcontributed": 5160,
      "Ġscheduled": 5161,
      "ĠSecretary": 5162,
      "otional": 5163,
      "prise": 5164,
      "respond": 5165,
      "ĠEast": 5166,
      "Ġsil": 5167,
      "Ġtotaled": 5168,
      "Ġweeks": 5169,
      "Ġdivor": 5170,
      "ANS": 5171,
      "Ġargue": 5172,
      "ĠMichael": 5173,
      "Ġcentury": 5174,
      "oning": 5175,
      "ma": 5176,
      "cript": 5177,
      "aut": 5178,
      "TM": 5179,
      "Ġraise": 5180,
      "ĠAff": 5181,
      "riff": 5182,
      "ĠResults": 5183,
      "Ġconformity": 5184,
      "Ġvend": 5185,
      "ĠThose": 5186,
      "Ġretained": 5187,
      "Ġphase": 5188,
      "Ġaffidavit": 5189,
      "Ġbeneficial": 5190,
      "ream": 5191,
      "ney": 5192,
      "Ġrestructuring": 5193,
      "Ġcou": 5194,
      "oles": 5195,
      "Ġvirt": 5196,
      "duc": 5197,
      "Ġproprietary": 5198,
      "Ġvo": 5199,
      "Ġeffectively": 5200,
      "Ġrecognize": 5201,
      "Ġcompletion": 5202,
      "Ġpositive": 5203,
      "Ġanaly": 5204,
      "ĠContract": 5205,
      "Ġtestify": 5206,
      "Ġdesignated": 5207,
      "ĠFile": 5208,
      "ĠAnalysis": 5209,
      "Ġter": 5210,
      "Ġmargin": 5211,
      "aves": 5212,
      "ĠInvestment": 5213,
      "ĠIndiana": 5214,
      "ulate": 5215,
      "Ġmaintained": 5216,
      "men": 5217,
      "ARY": 5218,
      "ocation": 5219,
      "pir": 5220,
      "ĠFurthermore": 5221,
      "Ġlost": 5222,
      "Ġaircraft": 5223,
      "Ġtests": 5224,
      "Ġ42": 5225,
      "Ġregular": 5226,
      "Ġexists": 5227,
      "Ġdead": 5228,
      "Ġdaily": 5229,
      "Ġdeliver": 5230,
      "iddle": 5231,
      "300": 5232,
      "Ġtransferred": 5233,
      "Ġrede": 5234,
      "Ġblock": 5235,
      "order": 5236,
      "Ġlesser": 5237,
      "Ġgovernmental": 5238,
      "Ġaccused": 5239,
      "Ġilleg": 5240,
      "ĠWater": 5241,
      "Ġrapid": 5242,
      "ĠSal": 5243,
      "ple": 5244,
      "Ġglobal": 5245,
      "kins": 5246,
      "ĠHer": 5247,
      "Ġelectronic": 5248,
      "essee": 5249,
      "Ġmail": 5250,
      "Ġbalances": 5251,
      "rown": 5252,
      "Ġadvanced": 5253,
      "Ġpatents": 5254,
      "Ġexpressly": 5255,
      "EAR": 5256,
      "ĠCarol": 5257,
      "iles": 5258,
      "ĠLease": 5259,
      "ĠCounsel": 5260,
      "amples": 5261,
      "Ġtaxable": 5262,
      "Ġsymptoms": 5263,
      "Ġdiscovered": 5264,
      "actions": 5265,
      "Ġarch": 5266,
      "Ġworks": 5267,
      "Ġmass": 5268,
      "Ġdisclosures": 5269,
      "ĠCas": 5270,
      "Ġdistributed": 5271,
      "ze": 5272,
      "Ġcamp": 5273,
      "Ġchann": 5274,
      "Ġsubstance": 5275,
      "Ġbonds": 5276,
      "Ġcentral": 5277,
      "ĠEuropean": 5278,
      "ĠPacific": 5279,
      "Ġadjusted": 5280,
      "astic": 5281,
      "ĠVirgin": 5282,
      "ĠArticle": 5283,
      "omin": 5284,
      "Ġconvey": 5285,
      "aine": 5286,
      "Ġdescrib": 5287,
      "ani": 5288,
      "orts": 5289,
      "Ġcenters": 5290,
      "Ġinspect": 5291,
      "Ġregion": 5292,
      "ĠREPOR": 5293,
      "Ġconsolid": 5294,
      "party": 5295,
      "long": 5296,
      "Ġenacted": 5297,
      "Ġholds": 5298,
      "Ġcommenced": 5299,
      "ĠSouthern": 5300,
      "Ġadvance": 5301,
      "Ġmiles": 5302,
      "Ġ120": 5303,
      "Ġcontrolled": 5304,
      "Ġson": 5305,
      "Ġavailability": 5306,
      "Ġadjustment": 5307,
      "iary": 5308,
      "Ġremoved": 5309,
      "Ġsolely": 5310,
      "Ġsalary": 5311,
      "Ġaside": 5312,
      "Ġusers": 5313,
      "ĠFDA": 5314,
      "Ġrestricted": 5315,
      "ĠAPP": 5316,
      "Ġutility": 5317,
      "Ġreviewed": 5318,
      "ĠShares": 5319,
      "ĠFrank": 5320,
      "ĠRob": 5321,
      "ards": 5322,
      "Ġbed": 5323,
      "Ġrevolving": 5324,
      "iber": 5325,
      "ĠBefore": 5326,
      "Ġdriver": 5327,
      "ĠTra": 5328,
      "Ġwalk": 5329,
      "ĠMCA": 5330,
      "ruptcy": 5331,
      "Ġanything": 5332,
      "Ġinvolves": 5333,
      "earing": 5334,
      "||": 5335,
      "Ġrelig": 5336,
      "venile": 5337,
      "Ġmanaged": 5338,
      "lands": 5339,
      "oses": 5340,
      "Ġdistingu": 5341,
      "Ġinjured": 5342,
      "Ġdriving": 5343,
      "Ġrelied": 5344,
      "Ġevaluating": 5345,
      "Ġ89": 5346,
      "Ġestimate": 5347,
      "Ġ2013": 5348,
      "alls": 5349,
      "ĠOpinion": 5350,
      "iture": 5351,
      "ĠConnect": 5352,
      "Ġhed": 5353,
      "Ġresident": 5354,
      "TOR": 5355,
      "Ġconfirm": 5356,
      "Ġsentenced": 5357,
      "yl": 5358,
      "Ġ(âĢľ": 5359,
      "ĠAmended": 5360,
      "ĠEnglish": 5361,
      "Ġhear": 5362,
      "ĠOh": 5363,
      "inent": 5364,
      "ĠGovernment": 5365,
      "Ġremained": 5366,
      "ounting": 5367,
      "Ġprinciple": 5368,
      "Ġ41": 5369,
      "Ġregistered": 5370,
      "hab": 5371,
      "Ġfeatures": 5372,
      "Acc": 5373,
      "Ġow": 5374,
      "Ġconclus": 5375,
      "Ġshowed": 5376,
      "ĠMAN": 5377,
      "ournal": 5378,
      "Ġlimitation": 5379,
      "Ġconjunction": 5380,
      "Ġapartment": 5381,
      "orse": 5382,
      "ĠFiscal": 5383,
      "ĠAR": 5384,
      "Ġ46": 5385,
      "Ġextreme": 5386,
      "Ġprogress": 5387,
      "ĠWhite": 5388,
      "Ġremanded": 5389,
      "Ġsegments": 5390,
      "ĠStud": 5391,
      "Ġcrimes": 5392,
      "Ġnames": 5393,
      "Ġpassed": 5394,
      "Ġpermits": 5395,
      "rees": 5396,
      "orthern": 5397,
      "rove": 5398,
      "Ġ75": 5399,
      "ĠMedical": 5400,
      "ĠCertificate": 5401,
      "Ġequivalent": 5402,
      "Ġlicensed": 5403,
      "Ġstress": 5404,
      "ĠMiller": 5405,
      "Ġ1982": 5406,
      "Ġchallenges": 5407,
      "...": 5408,
      "Ġthir": 5409,
      "ĠEffective": 5410,
      "Ġcomplain": 5411,
      "Ġhaz": 5412,
      "Ġseeks": 5413,
      "Ġfalse": 5414,
      "Ġpension": 5415,
      "Ġnone": 5416,
      "ĠSci": 5417,
      "Ġinterc": 5418,
      "ĠDavis": 5419,
      "Ġskills": 5420,
      "Ġcomes": 5421,
      "inter": 5422,
      "Ġmanufacture": 5423,
      "do": 5424,
      "Ġwest": 5425,
      "ĠTerm": 5426,
      "ĠWood": 5427,
      "ĠChic": 5428,
      "Ġletters": 5429,
      "Ġnut": 5430,
      "Ġstory": 5431,
      "Ġmunicipal": 5432,
      "inson": 5433,
      "Ġinsufficient": 5434,
      "Ġresearc": 5435,
      "ĠWeb": 5436,
      "Ġrelatively": 5437,
      "ĠArizona": 5438,
      "Ġwaiver": 5439,
      "Ġreb": 5440,
      "Ġreceivables": 5441,
      "Ġfails": 5442,
      "Ġsustain": 5443,
      "ae": 5444,
      "ĠHome": 5445,
      "Ġstudent": 5446,
      "Ġdevice": 5447,
      "hem": 5448,
      "Ġimproved": 5449,
      "ĠPR": 5450,
      "eria": 5451,
      "ĠPetition": 5452,
      "herent": 5453,
      "Ġconsisted": 5454,
      "ĠFCC": 5455,
      "aching": 5456,
      "Ġminutes": 5457,
      "ĠRestated": 5458,
      "Ġfeed": 5459,
      "Ġcumulative": 5460,
      "Ġfat": 5461,
      "ĠLLC": 5462,
      "Ġstru": 5463,
      "ĠIm": 5464,
      "SC": 5465,
      "Ġmaturities": 5466,
      "Ġfig": 5467,
      "ĠUnits": 5468,
      "ĠAtty": 5469,
      "Ġbuilt": 5470,
      "Ġsevere": 5471,
      "ocal": 5472,
      "08": 5473,
      "Ġcommitments": 5474,
      "Ġcand": 5475,
      "Ġla": 5476,
      "amin": 5477,
      "Ġwire": 5478,
      "Ġasserts": 5479,
      "leep": 5480,
      "Ġprevail": 5481,
      "Ġsoil": 5482,
      "Ġcru": 5483,
      "Ġdigital": 5484,
      "ificates": 5485,
      "Ġgoods": 5486,
      "SA": 5487,
      "ĠHist": 5488,
      "Ġmanage": 5489,
      "Ġregistrant": 5490,
      "OCK": 5491,
      "Ġcolor": 5492,
      "tts": 5493,
      "Ġregional": 5494,
      "licit": 5495,
      "Ġ109": 5496,
      "eting": 5497,
      "Ġregistration": 5498,
      "Ġsuffered": 5499,
      "icut": 5500,
      "just": 5501,
      "ximately": 5502,
      "eared": 5503,
      "Ġindirect": 5504,
      "ĠMichigan": 5505,
      "Ġafford": 5506,
      "Ġparticipate": 5507,
      "elve": 5508,
      "ĠIV": 5509,
      "Ġbreak": 5510,
      "Ġparagraph": 5511,
      "Ġreally": 5512,
      "ĠMerger": 5513,
      "Ġorganizations": 5514,
      "Ġlicenses": 5515,
      "ĠEnvironment": 5516,
      "Ġprepar": 5517,
      "dom": 5518,
      "Ġoutcome": 5519,
      "achuse": 5520,
      "Ġconsidering": 5521,
      "ĠAcquisition": 5522,
      "iform": 5523,
      "Ġmort": 5524,
      "achusetts": 5525,
      "Ġnar": 5526,
      "Ġfunda": 5527,
      "Ġwithdraw": 5528,
      "ray": 5529,
      "Ġmedia": 5530,
      "ĠChild": 5531,
      "Ġdismissal": 5532,
      "Ġpath": 5533,
      "Ġ1981": 5534,
      "Ġrise": 5535,
      "Ġtrack": 5536,
      "Ġpossess": 5537,
      "ĠCharles": 5538,
      "enth": 5539,
      "Ġwhite": 5540,
      "Ġextend": 5541,
      "Ġacres": 5542,
      "ĠAD": 5543,
      "ĠOPER": 5544,
      "400": 5545,
      "losed": 5546,
      "Ġversion": 5547,
      "vised": 5548,
      "Ġultimate": 5549,
      "ena": 5550,
      "Ġrejected": 5551,
      "Ġcorrespond": 5552,
      "ĠDet": 5553,
      "TED": 5554,
      "icts": 5555,
      "icians": 5556,
      "Ġclaimant": 5557,
      "Ġsurround": 5558,
      "Ġtools": 5559,
      "ese": 5560,
      "Ġconvictions": 5561,
      "Ġrecognition": 5562,
      "ĠSpr": 5563,
      "Ġwarn": 5564,
      "rec": 5565,
      "ĠChicago": 5566,
      "Ġ52": 5567,
      "ara": 5568,
      "attle": 5569,
      "ĠSupplement": 5570,
      "Ġheav": 5571,
      "Ġevaluation": 5572,
      "ĠMassachusetts": 5573,
      "oming": 5574,
      "ĠTR": 5575,
      "Ġannounced": 5576,
      "Ġaddressed": 5577,
      "Ġmill": 5578,
      "portion": 5579,
      "Ġcertified": 5580,
      "ĠMAR": 5581,
      "Ġjuror": 5582,
      "Ġmarriage": 5583,
      "ĠKent": 5584,
      "Ġpresents": 5585,
      "Ġscience": 5586,
      "ĠVirginia": 5587,
      "Ġschools": 5588,
      "Ġvehicles": 5589,
      "ĠIncentive": 5590,
      "Ġindicates": 5591,
      "za": 5592,
      "no": 5593,
      "ĠAustral": 5594,
      "Ġhom": 5595,
      "vidence": 5596,
      "ĠCong": 5597,
      "Ġpremiums": 5598,
      "Ġcyc": 5599,
      "Ġdivorce": 5600,
      "ĠFair": 5601,
      "Ġtransmission": 5602,
      "ilit": 5603,
      "Ġcounts": 5604,
      "Ġgrowing": 5605,
      "Ġ43": 5606,
      "ĠOver": 5607,
      "rs": 5608,
      "Ġpowers": 5609,
      "ĠKansas": 5610,
      "ĠEmployment": 5611,
      "ĠAF": 5612,
      "Ġstip": 5613,
      "Ġcalculated": 5614,
      "ĠAssets": 5615,
      "Ġserves": 5616,
      "Ġdollars": 5617,
      "Ġgot": 5618,
      "ĠOrder": 5619,
      "**": 5620,
      "ms": 5621,
      "ITH": 5622,
      "Ġderiv": 5623,
      "ĠAtlant": 5624,
      "Ġcomment": 5625,
      "Ġpossibility": 5626,
      "aled": 5627,
      "TIVE": 5628,
      "Ġprofits": 5629,
      "Ġcommunication": 5630,
      "eck": 5631,
      "Ġbod": 5632,
      "ussion": 5633,
      "Ġproved": 5634,
      "Ġincons": 5635,
      "ula": 5636,
      "ĠCER": 5637,
      "Ġcovenants": 5638,
      "Ġconcerns": 5639,
      "ĠOhio": 5640,
      "Ġmeasures": 5641,
      "Ġextensive": 5642,
      "Ġrail": 5643,
      "ĠMissou": 5644,
      "Ġtakes": 5645,
      "Ġ2014": 5646,
      "Ġpool": 5647,
      "Ġpresumption": 5648,
      "ĠFollow": 5649,
      "lude": 5650,
      "Ġrelation": 5651,
      "ifies": 5652,
      "ĠInst": 5653,
      "ĠREG": 5654,
      "Ġaudited": 5655,
      "Ġimpose": 5656,
      "yers": 5657,
      "otes": 5658,
      "Ġimmunity": 5659,
      "Ġdoor": 5660,
      "ĠResources": 5661,
      "Accounting": 5662,
      "Ġplanning": 5663,
      "itizens": 5664,
      "Ġnation": 5665,
      "Ġnorth": 5666,
      "==": 5667,
      "Ġevident": 5668,
      "ervation": 5669,
      "berg": 5670,
      "Ġcommittee": 5671,
      "Ġmodern": 5672,
      "ĠCOMM": 5673,
      "Ġpharm": 5674,
      "Ġworth": 5675,
      "Ġunique": 5676,
      "Ġidentification": 5677,
      "Ġordinance": 5678,
      "reek": 5679,
      "Ġbul": 5680,
      "Ġpricing": 5681,
      "Ġadvantage": 5682,
      "effective": 5683,
      "ST": 5684,
      "Ġworldwide": 5685,
      "Ġassessing": 5686,
      "Ġphysician": 5687,
      "ractice": 5688,
      "Ġerrors": 5689,
      "Ġaccumulated": 5690,
      "Ġdog": 5691,
      "Ġcommunities": 5692,
      "Ġcontest": 5693,
      "cell": 5694,
      "limin": 5695,
      "Ġdied": 5696,
      "Ġworked": 5697,
      "Ġthing": 5698,
      "Ġplat": 5699,
      "Ġguidelines": 5700,
      "Ġshot": 5701,
      "eas": 5702,
      "Ġbehind": 5703,
      "undred": 5704,
      "ĠJose": 5705,
      "Ġshoot": 5706,
      "Ġsatisfact": 5707,
      "Ġbig": 5708,
      "Ġterminate": 5709,
      "loss": 5710,
      "Ġslow": 5711,
      "ĠSpecial": 5712,
      "Ġsettled": 5713,
      "yle": 5714,
      "Ġclosed": 5715,
      "Ġmess": 5716,
      "asonable": 5717,
      "ĠProced": 5718,
      "itude": 5719,
      "Ġongoing": 5720,
      "ĠConnecticut": 5721,
      "ĠSECUR": 5722,
      "ĠTreas": 5723,
      "Ġsuccessfully": 5724,
      "Ġoffenses": 5725,
      "Ġindict": 5726,
      "Ġliquidity": 5727,
      "Ġaffiliate": 5728,
      "Ġdrink": 5729,
      "oma": 5730,
      "Ġnine": 5731,
      "Ġsouth": 5732,
      "89": 5733,
      "UN": 5734,
      "Ġrender": 5735,
      "Ġinterview": 5736,
      "Ġsomeone": 5737,
      "ĠWestern": 5738,
      "Ġobvi": 5739,
      "Ġamb": 5740,
      "Ġdece": 5741,
      "Ġengage": 5742,
      "Ġsubmit": 5743,
      "ĠCentral": 5744,
      "Ġmid": 5745,
      "Ġtask": 5746,
      "Ġtwelve": 5747,
      "Ġ65": 5748,
      "Ġguilt": 5749,
      "Ġultimately": 5750,
      "Ġonline": 5751,
      "ĠWal": 5752,
      "Ġagents": 5753,
      "Ġradio": 5754,
      "ternal": 5755,
      "Ġlik": 5756,
      "ĠEduc": 5757,
      "ĠManager": 5758,
      "ĠNevada": 5759,
      "Ġconvers": 5760,
      "MC": 5761,
      "ĠOR": 5762,
      "ĠUt": 5763,
      "ĠJeff": 5764,
      "ĠCOMPAN": 5765,
      "Ġcompete": 5766,
      "Ġbrand": 5767,
      "ĠJudicial": 5768,
      "gery": 5769,
      "ĠWell": 5770,
      "ĠBell": 5771,
      "Ġunderwrit": 5772,
      "Ġ1979": 5773,
      "Ġprogramming": 5774,
      "Ġalleging": 5775,
      "Ġpict": 5776,
      "Ġconverted": 5777,
      "rote": 5778,
      "Ġtract": 5779,
      "ĠGold": 5780,
      "Ġerroneous": 5781,
      "GA": 5782,
      "Ġbranch": 5783,
      "Ġlawyer": 5784,
      "gen": 5785,
      "Ġdeclined": 5786,
      "Ġlien": 5787,
      "irth": 5788,
      "vania": 5789,
      "Ġsetting": 5790,
      "iveness": 5791,
      "Ġexact": 5792,
      "ĠElectric": 5793,
      "ĠEmployee": 5794,
      "Ġsecure": 5795,
      "ĠEnter": 5796,
      "Ġincentive": 5797,
      "Ġcertificate": 5798,
      "down": 5799,
      "Ġconsequences": 5800,
      "urrence": 5801,
      "Ġconsisting": 5802,
      "ĠMexico": 5803,
      "Ġacknowled": 5804,
      "Ġrepair": 5805,
      "Ġ53": 5806,
      "Ġmitig": 5807,
      "Ġstage": 5808,
      "EST": 5809,
      "de": 5810,
      "syl": 5811,
      "Ġplead": 5812,
      "sequently": 5813,
      "anks": 5814,
      "statement": 5815,
      "inding": 5816,
      "Ġpreparation": 5817,
      "ibly": 5818,
      "ĠIndian": 5819,
      "Ġadvances": 5820,
      "Ġschedules": 5821,
      "utical": 5822,
      "Ġassignment": 5823,
      "CR": 5824,
      "Ġbelief": 5825,
      "Ġreceiving": 5826,
      "ĠCommunications": 5827,
      "eline": 5828,
      "Ġpick": 5829,
      "Ġconsulting": 5830,
      "enders": 5831,
      "liminary": 5832,
      "Ġcomparable": 5833,
      "Ġdoctor": 5834,
      "Ġweap": 5835,
      "esota": 5836,
      "pay": 5837,
      "isp": 5838,
      "Ġappellees": 5839,
      "Ġhar": 5840,
      "AGEMENT": 5841,
      "ĠCriminal": 5842,
      "Ġseems": 5843,
      "Ġdischarge": 5844,
      "sylvania": 5845,
      "Ġcomputed": 5846,
      "Ġcode": 5847,
      "Ġinside": 5848,
      "aired": 5849,
      "utive": 5850,
      "Ġdistance": 5851,
      "Ġgives": 5852,
      "Ġdrive": 5853,
      "era": 5854,
      "ĠDiscussion": 5855,
      "ensing": 5856,
      "Ġbear": 5857,
      "TERS": 5858,
      "Ġdescription": 5859,
      "Ġadjud": 5860,
      "ĠCORPOR": 5861,
      "reements": 5862,
      "ĠGood": 5863,
      "Ġinval": 5864,
      "which": 5865,
      "atically": 5866,
      "Ġvers": 5867,
      "atell": 5868,
      "erce": 5869,
      "ĠAppro": 5870,
      "Ġskin": 5871,
      "Ġrestrict": 5872,
      "Ġsheets": 5873,
      "itz": 5874,
      "Ġsociety": 5875,
      "Ġintegral": 5876,
      "Ġcore": 5877,
      "iry": 5878,
      "ĠMAT": 5879,
      "ĠHum": 5880,
      "Ġlooking": 5881,
      "Ġnegligent": 5882,
      "ĠMinnesota": 5883,
      "ARE": 5884,
      "ns": 5885,
      "ĠProt": 5886,
      "Ġprote": 5887,
      "Ġhomes": 5888,
      "ĠLet": 5889,
      "olute": 5890,
      "Ġstarted": 5891,
      "Ġspread": 5892,
      "ĠPal": 5893,
      "Ġdirection": 5894,
      "Ġmanager": 5895,
      "usion": 5896,
      "Ġjuvenile": 5897,
      "Ġrefin": 5898,
      "09": 5899,
      "Ġ44": 5900,
      "Ġappeared": 5901,
      "ĠPennsylvania": 5902,
      "Ġclimate": 5903,
      "linary": 5904,
      "Ġfranchise": 5905,
      "ĠCarolina": 5906,
      "ĠFore": 5907,
      "ĠOfficers": 5908,
      "rast": 5909,
      "Ġoriginally": 5910,
      "ĠCle": 5911,
      "Ġprovider": 5912,
      "Ġdepending": 5913,
      "We": 5914,
      "Ġsometimes": 5915,
      "ĠAppellee": 5916,
      "Ġball": 5917,
      "Ġsolutions": 5918,
      "Ġsatisfy": 5919,
      "ĠAssistant": 5920,
      "ĠMANAGEMENT": 5921,
      "emph": 5922,
      "Ġconstrued": 5923,
      "Ġquoted": 5924,
      "Ġamounted": 5925,
      "Ġmentioned": 5926,
      "Ġcounter": 5927,
      "aceutical": 5928,
      "ĠCondition": 5929,
      "Ġbott": 5930,
      "ĠGeorge": 5931,
      "orning": 5932,
      "Ġmerits": 5933,
      "ĠSCH": 5934,
      "Ġparticipation": 5935,
      "inations": 5936,
      "250": 5937,
      "Ġcarryfor": 5938,
      "ingly": 5939,
      "Ġheat": 5940,
      "ĠSchedule": 5941,
      "Ġconvertible": 5942,
      "ĠBorrow": 5943,
      "Ġstrategic": 5944,
      "Ġimplementation": 5945,
      "Ġsupplies": 5946,
      "Ġdistributors": 5947,
      "ordinary": 5948,
      "Ġtotaling": 5949,
      "ĠEr": 5950,
      "col": 5951,
      "inions": 5952,
      "ĠFollowing": 5953,
      "Ġremedi": 5954,
      "Ġpredict": 5955,
      "Ġetc": 5956,
      "Ġholder": 5957,
      "Ġimprovement": 5958,
      "Ġanc": 5959,
      "Ġgrad": 5960,
      "Ġpopular": 5961,
      "issions": 5962,
      "held": 5963,
      "ucky": 5964,
      "Ġrepresentative": 5965,
      "insurance": 5966,
      "âĢĻâĢĻ": 5967,
      "Ġrepresentation": 5968,
      "ĠDEC": 5969,
      "Ġexecution": 5970,
      "ĠDeferred": 5971,
      "Ġfloor": 5972,
      "ARD": 5973,
      "ĠClark": 5974,
      "rical": 5975,
      "ĠAppellate": 5976,
      "Ġ2015": 5977,
      "Ġinstance": 5978,
      "anges": 5979,
      "Ġnumbers": 5980,
      "asc": 5981,
      "Ġformal": 5982,
      "ĠHill": 5983,
      "Ġpoll": 5984,
      "MS": 5985,
      "Ġstrict": 5986,
      "uclear": 5987,
      "Ġinherent": 5988,
      "Ġstating": 5989,
      "Ġcontemp": 5990,
      "Ġaccordingly": 5991,
      "Ġsteps": 5992,
      "Ġspl": 5993,
      "MA": 5994,
      "Ġreplac": 5995,
      "IB": 5996,
      "Ġvoluntary": 5997,
      "Ġcorrectly": 5998,
      "ĠEm": 5999,
      "Ġmodified": 6000,
      "Ġphotograph": 6001,
      "Ġexhibits": 6002,
      "ĠLee": 6003,
      "TAIN": 6004,
      "Ġenable": 6005,
      "Ġcovering": 6006,
      "ĠLouisiana": 6007,
      "Ġoccurs": 6008,
      "Ġinvalid": 6009,
      "Ġsections": 6010,
      "ĠCORPORATION": 6011,
      "ĠProject": 6012,
      "Ġadmin": 6013,
      "ĠAC": 6014,
      "hest": 6015,
      "ĠTwo": 6016,
      "Ġwaived": 6017,
      "ĠSTOCK": 6018,
      "Ġpanel": 6019,
      "AD": 6020,
      "Ġhon": 6021,
      "Ġidea": 6022,
      "600": 6023,
      "Ġguard": 6024,
      "Ġaffirmative": 6025,
      "Ġconcerned": 6026,
      "Ġ1978": 6027,
      "ĠACCOUNTING": 6028,
      "Ġobtaining": 6029,
      "Ġpert": 6030,
      "Ġacting": 6031,
      "Ġassociation": 6032,
      "ĠJersey": 6033,
      "risonment": 6034,
      "Ġvoid": 6035,
      "ĠRock": 6036,
      "urt": 6037,
      "Ġ128": 6038,
      "hat": 6039,
      "roy": 6040,
      "uff": 6041,
      "Ġranging": 6042,
      "iation": 6043,
      "Ġsupports": 6044,
      "Ġdangerous": 6045,
      "ĠContin": 6046,
      "Ġpromp": 6047,
      "Ġsun": 6048,
      "ĠâĢķ": 6049,
      "Ġanimals": 6050,
      "ISTR": 6051,
      "ĠMartin": 6052,
      "Ġuser": 6053,
      "ĠOil": 6054,
      "ĠTechnology": 6055,
      "ki": 6056,
      "ĠCOMPANY": 6057,
      "Ġcontaining": 6058,
      "pped": 6059,
      "aylor": 6060,
      "Ġconclusions": 6061,
      "Ġgoodwill": 6062,
      "hel": 6063,
      "Ġpul": 6064,
      "Ġimprisonment": 6065,
      "UD": 6066,
      "ĠMod": 6067,
      "ĠThrough": 6068,
      "Ġpotentially": 6069,
      "Ġhyd": 6070,
      "Ġgrants": 6071,
      "ĠUN": 6072,
      "celer": 6073,
      "Ġ85": 6074,
      "Ġfell": 6075,
      "ĠSun": 6076,
      "Ġprobably": 6077,
      "gar": 6078,
      "Ġparticipants": 6079,
      "mbol": 6080,
      "issue": 6081,
      "Ġhost": 6082,
      "Ġphr": 6083,
      "Ġgeneration": 6084,
      "Ġmanufactured": 6085,
      "ĠUnit": 6086,
      "%)": 6087,
      "ĠParticip": 6088,
      "ĠDue": 6089,
      "ĠAT": 6090,
      "Ġresearchers": 6091,
      "Ġpreliminary": 6092,
      "Ġsubdivision": 6093,
      "Ġtrials": 6094,
      "ĠControl": 6095,
      "Ġaband": 6096,
      "Ġscientific": 6097,
      "Ġspent": 6098,
      "Ġdemonstrate": 6099,
      "Ġfunded": 6100,
      "Ġmerchand": 6101,
      "Ġexamining": 6102,
      "organization": 6103,
      "Ġtelecommunications": 6104,
      "Ġwood": 6105,
      "ĠDate": 6106,
      "Ġviolations": 6107,
      "Ġprescribed": 6108,
      "Ġattached": 6109,
      "ĠInstitute": 6110,
      "iques": 6111,
      "Ġarrangement": 6112,
      "Ġefficient": 6113,
      "Ġserving": 6114,
      "looking": 6115,
      "Ġbooks": 6116,
      "ĠEnvironmental": 6117,
      "cle": 6118,
      "Ġhealthy": 6119,
      "umer": 6120,
      "Ġreviewing": 6121,
      "Ġ55": 6122,
      "Ġsoon": 6123,
      "roc": 6124,
      "Ġbroker": 6125,
      "Ġfundamental": 6126,
      "Ġpursu": 6127,
      "ĠSavings": 6128,
      "haps": 6129,
      "Ġapplying": 6130,
      "ĠAP": 6131,
      "Ġimportance": 6132,
      "Ġreimbursement": 6133,
      "water": 6134,
      "Ġease": 6135,
      "Ġchoice": 6136,
      "Ġrepeated": 6137,
      "Ġawards": 6138,
      "Ġcandid": 6139,
      "ĠCongress": 6140,
      "Ġintegrated": 6141,
      "Ġwanted": 6142,
      "ĠHospital": 6143,
      "Ġcriteria": 6144,
      "Ġnetworks": 6145,
      "anged": 6146,
      "epend": 6147,
      "theless": 6148,
      "Ġslight": 6149,
      "ELL": 6150,
      "Ġsem": 6151,
      "Ġexplor": 6152,
      "itect": 6153,
      "Ġplaces": 6154,
      "Ġlawsuit": 6155,
      "Ġ2016": 6156,
      "ĠBritish": 6157,
      "Ġhabit": 6158,
      "Ġcollabor": 6159,
      "Ġresidence": 6160,
      "Ġdistinct": 6161,
      "viction": 6162,
      "ept": 6163,
      "Ġdisplay": 6164,
      "ellig": 6165,
      "ĠColumb": 6166,
      "Ġtry": 6167,
      "Ġrecommended": 6168,
      "Ġending": 6169,
      "oral": 6170,
      "ĠSol": 6171,
      "ĠRelated": 6172,
      "Ġmoving": 6173,
      "Ġcapacities": 6174,
      "Ġundert": 6175,
      "ĠHouse": 6176,
      "Ġinitially": 6177,
      "Ġruled": 6178,
      "ks": 6179,
      "Ġwrote": 6180,
      "icate": 6181,
      "Ġthirty": 6182,
      "Ġmulti": 6183,
      "Ġacceptance": 6184,
      "oly": 6185,
      "FIC": 6186,
      "Ġliter": 6187,
      "Ġabsolute": 6188,
      "ĠCR": 6189,
      "essor": 6190,
      "Ġcreating": 6191,
      "Ġacted": 6192,
      "Ġutilized": 6193,
      "Ġimplied": 6194,
      "Ġauditing": 6195,
      "ĠPrincip": 6196,
      "Ġmilitary": 6197,
      "ĠEQU": 6198,
      "Ġ51": 6199,
      "urring": 6200,
      "Ġcontrols": 6201,
      "ĠWilson": 6202,
      "Ġtruth": 6203,
      "Ġgoverning": 6204,
      "ĠChina": 6205,
      "Ġlatter": 6206,
      "Ġcontingent": 6207,
      "Ġconven": 6208,
      "Ġparole": 6209,
      "ĠDou": 6210,
      "ĠRegulation": 6211,
      "Ġ130": 6212,
      "Ġdollar": 6213,
      "Ġprivilege": 6214,
      "ĠPART": 6215,
      "ĠSuper": 6216,
      "Ġsmaller": 6217,
      "Ġbon": 6218,
      "Ġhundred": 6219,
      "Ġrefere": 6220,
      "Ġrely": 6221,
      "Ġadvised": 6222,
      "Ġign": 6223,
      "ĠFood": 6224,
      "Ġstations": 6225,
      "ĠReserve": 6226,
      "ancellor": 6227,
      "oston": 6228,
      "ĠCompanies": 6229,
      "Ġneigh": 6230,
      "Ġ95": 6231,
      "ĠSy": 6232,
      "Ġhazard": 6233,
      "opping": 6234,
      "Ġillegal": 6235,
      "inqu": 6236,
      "ĠAud": 6237,
      "Ġpertinent": 6238,
      "Ġexisted": 6239,
      "rench": 6240,
      "issory": 6241,
      "represent": 6242,
      "Ġexcluded": 6243,
      "Ġsentences": 6244,
      "Ġreducing": 6245,
      "Ġindictment": 6246,
      "ĠFl": 6247,
      "ĠTrustee": 6248,
      "Ġredemption": 6249,
      "ATA": 6250,
      "Ġportions": 6251,
      "800": 6252,
      "ded": 6253,
      "Ġremove": 6254,
      "ĠEnded": 6255,
      "BI": 6256,
      "Ġware": 6257,
      "lease": 6258,
      "Ġclerk": 6259,
      "EMBER": 6260,
      "ĠProcedure": 6261,
      "Ch": 6262,
      "Ġperf": 6263,
      "Ġeasily": 6264,
      "ricult": 6265,
      "BL": 6266,
      "Ġhardware": 6267,
      "Ġmagn": 6268,
      "Ġsleep": 6269,
      "ĠYEAR": 6270,
      "Ġappra": 6271,
      "Ġadmissible": 6272,
      "ĠHall": 6273,
      "Ġimmediate": 6274,
      "________________": 6275,
      "ĠAnderson": 6276,
      "Ġnearly": 6277,
      "ĠSubsidiaries": 6278,
      "Ġbatter": 6279,
      "Ġdaugh": 6280,
      "ĠWhere": 6281,
      "ĠMissouri": 6282,
      "Ġship": 6283,
      "Ġservicing": 6284,
      "kn": 6285,
      "Ġemergency": 6286,
      "quoting": 6287,
      "ifth": 6288,
      "Ġpurport": 6289,
      "Ġinstructed": 6290,
      "ĠVenture": 6291,
      "inger": 6292,
      "endar": 6293,
      "Ġdespite": 6294,
      "Ġhtt": 6295,
      "edent": 6296,
      "Ġborn": 6297,
      "Ġshareholder": 6298,
      "Su": 6299,
      "Ġ1977": 6300,
      "Ġmodification": 6301,
      "orporations": 6302,
      "Ġbarg": 6303,
      "Ġhands": 6304,
      "ĠCouncil": 6305,
      "Ġtherapy": 6306,
      "that": 6307,
      "rated": 6308,
      "Ġchanging": 6309,
      "vo": 6310,
      "Ġexceptions": 6311,
      "ĠScott": 6312,
      "ĠMac": 6313,
      "Ġflex": 6314,
      "Ġreserved": 6315,
      "Am": 6316,
      "Ġrepurchase": 6317,
      "ero": 6318,
      "Ġconnect": 6319,
      "rig": 6320,
      "ĠOb": 6321,
      "ĠLE": 6322,
      "ĠRoy": 6323,
      "ĠOPERATIONS": 6324,
      "ĠWhether": 6325,
      "ĠAdv": 6326,
      "spec": 6327,
      "Ġgreen": 6328,
      "ĠBanc": 6329,
      "Ġ54": 6330,
      "udget": 6331,
      "abric": 6332,
      "eter": 6333,
      "TIES": 6334,
      "oked": 6335,
      ".]": 6336,
      "ANCE": 6337,
      "iration": 6338,
      "Ġdeliber": 6339,
      "ĠEngland": 6340,
      "ĠPL": 6341,
      "Ġproducing": 6342,
      "Ġcompletely": 6343,
      "ĠLake": 6344,
      "ĠBuild": 6345,
      "Ġcomprised": 6346,
      "Ġconsiders": 6347,
      "Ġentirely": 6348,
      "ĠBill": 6349,
      "Ġagricult": 6350,
      "Ġdepri": 6351,
      "Ġhyp": 6352,
      "Ġdisposal": 6353,
      "itations": 6354,
      "oned": 6355,
      "ĠÂ§Â§": 6356,
      "ĠThird": 6357,
      "Ġfem": 6358,
      "Ġprospective": 6359,
      "Ġproportion": 6360,
      "Ġprejudicial": 6361,
      "ĠCare": 6362,
      "Ġestablishes": 6363,
      "Ġmaster": 6364,
      "Ġquickly": 6365,
      "Ġvariable": 6366,
      "ĠMal": 6367,
      "02": 6368,
      "ĠNetwork": 6369,
      "Ġdeep": 6370,
      "Ġinquiry": 6371,
      "Ġquite": 6372,
      "ĠJoint": 6373,
      "Ġannually": 6374,
      "ander": 6375,
      "Ġdetailed": 6376,
      "ky": 6377,
      "Ġcausing": 6378,
      "Ġunlaw": 6379,
      "rum": 6380,
      "Ġprohibit": 6381,
      "Ġbrother": 6382,
      "Ġcorre": 6383,
      "ĠKentucky": 6384,
      "ĠQuarterly": 6385,
      "Ġopening": 6386,
      "Ġacceler": 6387,
      "Ġsatisfied": 6388,
      "Ġadmit": 6389,
      "SE": 6390,
      "Ġcoal": 6391,
      "itan": 6392,
      "Ġpunitive": 6393,
      "Ġmachine": 6394,
      "ĠEngine": 6395,
      "ĠIr": 6396,
      "Ġintroduction": 6397,
      "Ġpresident": 6398,
      "Ġpresently": 6399,
      "ĠInstead": 6400,
      "ĠPrice": 6401,
      "Ġsymbol": 6402,
      "Ġmandatory": 6403,
      "Ġreturns": 6404,
      "BC": 6405,
      "apers": 6406,
      "ductions": 6407,
      "Ġrational": 6408,
      "Ġ110": 6409,
      "ĠBra": 6410,
      "ops": 6411,
      "Ġinconsistent": 6412,
      "ĠYears": 6413,
      "ĠSUP": 6414,
      "Ġfru": 6415,
      "Ġtemperature": 6416,
      "Ġopened": 6417,
      "Ġcod": 6418,
      "Ġ300": 6419,
      "uration": 6420,
      "Ġcontrolling": 6421,
      "ĠIT": 6422,
      "Ġaspects": 6423,
      "Ġep": 6424,
      "Ġterrit": 6425,
      "Ġpaying": 6426,
      "Ġvested": 6427,
      "ĠOnce": 6428,
      "Ġeth": 6429,
      "ĠDECEMBER": 6430,
      "ĠGreat": 6431,
      "ĠMeeting": 6432,
      "ĠStatutes": 6433,
      "Ġpoor": 6434,
      "Ġannum": 6435,
      "Ġmonitoring": 6436,
      "Ġpartial": 6437,
      "ours": 6438,
      "Ġbirth": 6439,
      "ĠMid": 6440,
      "Ġwon": 6441,
      "arsh": 6442,
      "Ġprop": 6443,
      "Ġcharacteristics": 6444,
      "ÂŃ": 6445,
      "Ġmargins": 6446,
      "Ġing": 6447,
      "Ġgoal": 6448,
      "Ġtechniques": 6449,
      "Ġgir": 6450,
      "iat": 6451,
      "Ġvalidity": 6452,
      "Ġprotected": 6453,
      "ĠJoseph": 6454,
      "Ġestablishing": 6455,
      "Ġmovement": 6456,
      "Ġanti": 6457,
      "ĠMur": 6458,
      "sub": 6459,
      "Ġmeasured": 6460,
      "Ġeasy": 6461,
      "Ġcarriers": 6462,
      "conviction": 6463,
      "Ġinvested": 6464,
      "ĠPost": 6465,
      "eech": 6466,
      "ĠPlaintiffs": 6467,
      "Ġequitable": 6468,
      "DIC": 6469,
      "Ġenjoy": 6470,
      "iguous": 6471,
      "lication": 6472,
      "GE": 6473,
      "ĠRELATED": 6474,
      "BM": 6475,
      "Ġcollected": 6476,
      "Ġmanifest": 6477,
      "ĠAppellants": 6478,
      "Ġsuggests": 6479,
      "ĠPe": 6480,
      "Ġdat": 6481,
      "Ġcooper": 6482,
      "Ġreplacement": 6483,
      "Ġextraordinary": 6484,
      "Ġbenefici": 6485,
      "Ġemphas": 6486,
      "Ġunders": 6487,
      "Ġfriend": 6488,
      "ĠNow": 6489,
      "Ġraw": 6490,
      "Ġobjective": 6491,
      "Ġexplain": 6492,
      "Ġassume": 6493,
      "ĠReports": 6494,
      "Ġstrength": 6495,
      "ĠOW": 6496,
      "Ġdry": 6497,
      "aces": 6498,
      "uate": 6499,
      "Ġdepends": 6500,
      "ĠIND": 6501,
      "Ġpp": 6502,
      "bed": 6503,
      "Ġ56": 6504,
      "Ġkill": 6505,
      "Ġhighest": 6506,
      "Ġ500": 6507,
      "LI": 6508,
      "ĠBay": 6509,
      "Ġweather": 6510,
      "eli": 6511,
      "Ġfluctuations": 6512,
      "Ġextension": 6513,
      "Ġpled": 6514,
      "ĠEarth": 6515,
      "Ġcalendar": 6516,
      "Ġtiming": 6517,
      "Ġremoval": 6518,
      "ĠBo": 6519,
      "ĠTaylor": 6520,
      "ĠCorporate": 6521,
      "ĠDi": 6522,
      "Inc": 6523,
      "An": 6524,
      "Ġconstituted": 6525,
      "ĠJew": 6526,
      "150": 6527,
      "arden": 6528,
      "Ġconsumm": 6529,
      "Ġinfl": 6530,
      "ĠFinance": 6531,
      "fort": 6532,
      "ĠSCHED": 6533,
      "Ġdetect": 6534,
      "ĠIndustrial": 6535,
      "Ġcarrier": 6536,
      "ĠColl": 6537,
      "ountain": 6538,
      "otion": 6539,
      "Ġalter": 6540,
      "pe": 6541,
      "Ġgeographic": 6542,
      "anda": 6543,
      "ĠNE": 6544,
      "Ġlending": 6545,
      "Ġmaintaining": 6546,
      "aters": 6547,
      "Ġfocused": 6548,
      "Ġseem": 6549,
      "Ġreversal": 6550,
      "ĠFlow": 6551,
      "ĠSign": 6552,
      "Ġinjunction": 6553,
      "ĠREGISTR": 6554,
      "Ġcapt": 6555,
      "Ġsteel": 6556,
      "Ġrefer": 6557,
      "ĠCAS": 6558,
      "ĠTru": 6559,
      "Ġamendments": 6560,
      "Ġcontend": 6561,
      "ifi": 6562,
      "Ġ2017": 6563,
      "Ġlived": 6564,
      "kin": 6565,
      "cious": 6566,
      "Ġcategories": 6567,
      "Ġirre": 6568,
      "Ġcarryforwards": 6569,
      "ĠArm": 6570,
      "Ġcarbon": 6571,
      "TIONS": 6572,
      "opped": 6573,
      "adian": 6574,
      "tax": 6575,
      "Ġconvinc": 6576,
      "âĢĸ": 6577,
      "Ġexpiration": 6578,
      "Ġsells": 6579,
      "Ġkilled": 6580,
      "anufact": 6581,
      "Ġrefusal": 6582,
      "05": 6583,
      "Ġ401": 6584,
      "ĠWarrant": 6585,
      "ulf": 6586,
      "Ġsupervis": 6587,
      "Ġimage": 6588,
      "Ġscene": 6589,
      "Ġviolence": 6590,
      "ĠFamily": 6591,
      "Ġconstitutes": 6592,
      "ĠDepre": 6593,
      "Ġhighway": 6594,
      "Ġ1976": 6595,
      "burg": 6596,
      "URE": 6597,
      "Ġcalls": 6598,
      "Ġguaranteed": 6599,
      "Ġ1970": 6600,
      "Ġmicro": 6601,
      "Ġcontribute": 6602,
      "ĠDNA": 6603,
      "Ġearth": 6604,
      "ĠBoston": 6605,
      "Ġtradem": 6606,
      "ĠMark": 6607,
      "ĠLabor": 6608,
      "Ġunpaid": 6609,
      "Ġremediation": 6610,
      "ester": 6611,
      "ĠValley": 6612,
      "Ġemotional": 6613,
      "Ġcategory": 6614,
      "Ġnews": 6615,
      "Ġspeak": 6616,
      "ĠYoun": 6617,
      "ouses": 6618,
      "Ġoffender": 6619,
      "ĠBer": 6620,
      "Ġaid": 6621,
      "Ġrelies": 6622,
      "ĠDepreciation": 6623,
      "Ġmag": 6624,
      "Ġtrustee": 6625,
      "Ġliber": 6626,
      "light": 6627,
      "ĠEducation": 6628,
      "aken": 6629,
      "Ġresist": 6630,
      "Reg": 6631,
      "Ġstrategies": 6632,
      "lock": 6633,
      "Ġpunishment": 6634,
      "Ġplatform": 6635,
      "lim": 6636,
      "pet": 6637,
      "ĠStr": 6638,
      "Ġsurrounding": 6639,
      "Ġfish": 6640,
      "Ġsatell": 6641,
      "OD": 6642,
      "ĠFact": 6643,
      "ĠPay": 6644,
      "ĠInternal": 6645,
      "Ġtenant": 6646,
      "Ġowed": 6647,
      "Ġcapabilities": 6648,
      "ĠAdvis": 6649,
      "venues": 6650,
      "atement": 6651,
      "ructure": 6652,
      "Ġ61": 6653,
      "ĠEND": 6654,
      "ESS": 6655,
      "Ġmarks": 6656,
      "Ġ333": 6657,
      "Ġsolution": 6658,
      "Ġstreet": 6659,
      "ĠHen": 6660,
      "ĠBel": 6661,
      "ĠTitle": 6662,
      "Ġprime": 6663,
      "agers": 6664,
      "board": 6665,
      "oud": 6666,
      "Ġindustries": 6667,
      "ilies": 6668,
      "REME": 6669,
      "ste": 6670,
      "Ġhy": 6671,
      "Ġbox": 6672,
      "examination": 6673,
      "ĠHon": 6674,
      "Ġpoly": 6675,
      ".;": 6676,
      "ĠFord": 6677,
      "othing": 6678,
      "ĠDeb": 6679,
      "Ġchapter": 6680,
      "Ġsuggested": 6681,
      "Ġbearing": 6682,
      "Ġlargely": 6683,
      "ĠEv": 6684,
      "Ġcaption": 6685,
      "Ġsuspended": 6686,
      "Ġsuppress": 6687,
      "Ġmodels": 6688,
      "Ġchoose": 6689,
      "ocket": 6690,
      "oster": 6691,
      "ĠHarris": 6692,
      "Ġteachers": 6693,
      "ĠLoans": 6694,
      "Ġmorning": 6695,
      "ĠManaging": 6696,
      "BA": 6697,
      "Ġcredibility": 6698,
      "Ġmanaging": 6699,
      "ĠPhil": 6700,
      "Ġgenerate": 6701,
      "Ġtowards": 6702,
      "cel": 6703,
      "Ġrating": 6704,
      "ĠOptions": 6705,
      "Ġago": 6706,
      "Ġ1973": 6707,
      "astern": 6708,
      "Ġvia": 6709,
      "Ġanimal": 6710,
      "Ġdouble": 6711,
      "ĠChapter": 6712,
      "Ġclasses": 6713,
      "gn": 6714,
      "âĢ¦": 6715,
      "AW": 6716,
      "Ġexplan": 6717,
      "Ġdrawn": 6718,
      "king": 6719,
      "Ġexpanded": 6720,
      "alized": 6721,
      "ĠOld": 6722,
      "Ġhelps": 6723,
      "ĠAuthor": 6724,
      "ĠSand": 6725,
      "Ġburn": 6726,
      "Ġdiseases": 6727,
      "Ġconsolidation": 6728,
      "ĠAdministration": 6729,
      "Ġsurgery": 6730,
      "ĠIndustries": 6731,
      "heme": 6732,
      "Ġalleges": 6733,
      "Ġcommissions": 6734,
      "ĠGra": 6735,
      "Ġrestaurant": 6736,
      "Ġoccasion": 6737,
      "Ġmusic": 6738,
      "Ġprocedural": 6739,
      "ĠConc": 6740,
      "ĠAssembly": 6741,
      "Ġorganized": 6742,
      "ĠColo": 6743,
      "Ġreceives": 6744,
      "atur": 6745,
      "Ġarise": 6746,
      "Ġretro": 6747,
      "ĠLew": 6748,
      "ĠPER": 6749,
      "ĠPerson": 6750,
      "ĠEvidence": 6751,
      "Ġgra": 6752,
      "Ġ__": 6753,
      "ĠBas": 6754,
      "This": 6755,
      "ĠREGISTRANT": 6756,
      "ĠOC": 6757,
      "Ġsubsection": 6758,
      "Ġgetting": 6759,
      "uated": 6760,
      "place": 6761,
      "ĠMATTERS": 6762,
      "Ġprohibited": 6763,
      "ĠKenn": 6764,
      "Ġunconstitutional": 6765,
      "Ġmiss": 6766,
      "rimination": 6767,
      "Ġchief": 6768,
      "ĠPolic": 6769,
      "ĠUs": 6770,
      "Ġsuspension": 6771,
      "HIP": 6772,
      "Ġ)": 6773,
      "Ġ1974": 6774,
      "Ġrepresentatives": 6775,
      "Ġderivative": 6776,
      "mphasis": 6777,
      "ĠIndependent": 6778,
      "Ġpreceding": 6779,
      "Ġfacilit": 6780,
      "gun": 6781,
      "que": 6782,
      "Ġven": 6783,
      "Ġhousing": 6784,
      "Ġeconomy": 6785,
      "ĠMarketing": 6786,
      "ica": 6787,
      "Ġ133": 6788,
      "Ġmineral": 6789,
      "ĠSaf": 6790,
      "ĠTenn": 6791,
      "Ġdisagree": 6792,
      "Ġdiscontinued": 6793,
      "ĠIndenture": 6794,
      "ĠStep": 6795,
      "qualified": 6796,
      "ĠSECURITY": 6797,
      "ĠSUPREME": 6798,
      "ĠDefendants": 6799,
      "Ġentering": 6800,
      "Ġshipp": 6801,
      "Ġfoods": 6802,
      "Ġwoman": 6803,
      "ĠBi": 6804,
      "Ġ121": 6805,
      "ondon": 6806,
      "ĠAre": 6807,
      "ĠDay": 6808,
      "Ġrunning": 6809,
      "Ġrepay": 6810,
      "Ġdiluted": 6811,
      "Ġapparently": 6812,
      "ĠGuarant": 6813,
      "insured": 6814,
      "Ġsummer": 6815,
      "Ġwid": 6816,
      "Ġlie": 6817,
      "ĠGl": 6818,
      "Ġpartnerships": 6819,
      "ĠOut": 6820,
      "Ġdrilling": 6821,
      "win": 6822,
      "ĠHel": 6823,
      "emphasis": 6824,
      "Ġinvestors": 6825,
      "Ġexclusion": 6826,
      "Ġunderstood": 6827,
      "rey": 6828,
      "alled": 6829,
      "Ġeye": 6830,
      "Ġquot": 6831,
      "Ġ97": 6832,
      "Ġeliminated": 6833,
      "utation": 6834,
      "ĠMcG": 6835,
      "Ġuns": 6836,
      "Ġtranscript": 6837,
      "Ġmatch": 6838,
      "ĠAnother": 6839,
      "known": 6840,
      "Ġnarrow": 6841,
      "Ġnewly": 6842,
      "withstanding": 6843,
      "resh": 6844,
      "Ġplanned": 6845,
      "Ġabused": 6846,
      "Ġaffecting": 6847,
      "LA": 6848,
      "Ġimplemented": 6849,
      "book": 6850,
      "Ġborrowing": 6851,
      "cial": 6852,
      "essel": 6853,
      "ĠWITH": 6854,
      "ĠAgent": 6855,
      "ĠCERTAIN": 6856,
      "ĠHolding": 6857,
      "ĠDATA": 6858,
      "ĠIndia": 6859,
      "ĠCommercial": 6860,
      "Ġexcluding": 6861,
      "Ġrock": 6862,
      "Ġbelong": 6863,
      "ils": 6864,
      "ĠScience": 6865,
      "ĠMcD": 6866,
      "sell": 6867,
      "Ġphone": 6868,
      "Ġscreen": 6869,
      "ĠENDED": 6870,
      "regon": 6871,
      "Ġdanger": 6872,
      "Ġregardless": 6873,
      "Ġvendors": 6874,
      "Ġexamined": 6875,
      "Ġchallenged": 6876,
      "PC": 6877,
      "Ġfight": 6878,
      "Ġevidentiary": 6879,
      "Ġpersu": 6880,
      "Ġfast": 6881,
      "Ġbarred": 6882,
      "Ġdeceased": 6883,
      "Ġrelate": 6884,
      "Ġarchitect": 6885,
      "Ġkid": 6886,
      "ĠRay": 6887,
      "Ġwholes": 6888,
      "Ġfabric": 6889,
      "Ġremainder": 6890,
      "Ġappointment": 6891,
      "Ġ150": 6892,
      "Ġfrequently": 6893,
      "Ġcontractor": 6894,
      "Ġbuy": 6895,
      "Ġscale": 6896,
      "Ġcommonly": 6897,
      "reci": 6898,
      "Ġwebs": 6899,
      "Ġconfidential": 6900,
      "abet": 6901,
      "Ġzoning": 6902,
      "Ġelectricity": 6903,
      "Ġunreasonable": 6904,
      "adem": 6905,
      "Ġburgl": 6906,
      "eness": 6907,
      "Ġdivided": 6908,
      "END": 6909,
      "ĠQual": 6910,
      "Ġaffiliated": 6911,
      "ĠLic": 6912,
      "ĠPA": 6913,
      "Ġlif": 6914,
      "ensions": 6915,
      "Ġselection": 6916,
      "Ġassessed": 6917,
      "ĠMT": 6918,
      "Ġunn": 6919,
      "Ġheadqu": 6920,
      "Ġdecedent": 6921,
      "tr": 6922,
      "ĠCase": 6923,
      "ĠOWNERS": 6924,
      "ĠYoung": 6925,
      "ĠRoad": 6926,
      "Ġthereon": 6927,
      "iance": 6928,
      "Ġsituations": 6929,
      "ĠTer": 6930,
      "Ġlat": 6931,
      "ĠTown": 6932,
      "Ġlands": 6933,
      "Ġeducational": 6934,
      "irds": 6935,
      "Fla": 6936,
      "Ġgl": 6937,
      "ĠHam": 6938,
      "Ġelsewhere": 6939,
      "Ġconstant": 6940,
      "Ġgame": 6941,
      "Ġsubordinated": 6942,
      "ĠFranc": 6943,
      "Ġ2018": 6944,
      "Ġforesee": 6945,
      "ĠFrench": 6946,
      "Man": 6947,
      "Ġdefinitive": 6948,
      "lements": 6949,
      "Ġmemory": 6950,
      "Ġoperator": 6951,
      "Ġmetal": 6952,
      "ĠOregon": 6953,
      "Ġcities": 6954,
      "iece": 6955,
      "ĠES": 6956,
      "Ġachieved": 6957,
      "Ġupgr": 6958,
      "uk": 6959,
      "ĠMoore": 6960,
      "Ġpursue": 6961,
      "Ġwrongful": 6962,
      "Ġplacement": 6963,
      "Col": 6964,
      "ĠIncorporation": 6965,
      "Ġturned": 6966,
      "Ġscheme": 6967,
      "Ġrefund": 6968,
      "95": 6969,
      "ĠMil": 6970,
      "ĠBrad": 6971,
      "erring": 6972,
      "Ġintellig": 6973,
      "icide": 6974,
      "Emphasis": 6975,
      "Ġwhereby": 6976,
      "lec": 6977,
      "mark": 6978,
      "ĠIts": 6979,
      "Ġbacter": 6980,
      "Ġbab": 6981,
      "ament": 6982,
      "arnings": 6983,
      "Ġindex": 6984,
      "FOR": 6985,
      "ĠUSA": 6986,
      "ĠCamp": 6987,
      "ĠQU": 6988,
      "Ġ131": 6989,
      "ĠRom": 6990,
      "Ġwells": 6991,
      "Ġanyone": 6992,
      "certain": 6993,
      "Ġlicensing": 6994,
      "HOLD": 6995,
      "Ġwarm": 6996,
      "Ġcommence": 6997,
      "Ġmedic": 6998,
      "ĠFDIC": 6999,
      "Ġcorporations": 7000,
      "Ġadequately": 7001,
      "osite": 7002,
      "Ġdaughter": 7003,
      "Ġroyalty": 7004,
      "Ġvacc": 7005,
      "03": 7006,
      "Ã©": 7007,
      "85": 7008,
      "Ġmortg": 7009,
      "Ġbreat": 7010,
      "Ġobligated": 7011,
      "Ġrenewal": 7012,
      "700": 7013,
      "Ġpertain": 7014,
      "Ġaim": 7015,
      "EAL": 7016,
      "ĠEst": 7017,
      "Ġcontrast": 7018,
      "Ġrestaurants": 7019,
      "ĠSpecific": 7020,
      "Ġseed": 7021,
      "Ġcertificates": 7022,
      "ĠBalance": 7023,
      "Ġleaving": 7024,
      "ĠSur": 7025,
      "Ġclar": 7026,
      "Ġvolumes": 7027,
      "Ġlaun": 7028,
      "Ġdatab": 7029,
      "Re": 7030,
      "aud": 7031,
      "File": 7032,
      "ulating": 7033,
      "ĠExhibits": 7034,
      "rix": 7035,
      "Ġforest": 7036,
      "ĠMA": 7037,
      "],": 7038,
      "Ġrestated": 7039,
      "Ġinterpre": 7040,
      "ĠKn": 7041,
      "illage": 7042,
      "Ġbroadcast": 7043,
      "Ġnurs": 7044,
      "cher": 7045,
      "Ġinstances": 7046,
      "Ġguarantee": 7047,
      "Ġsect": 7048,
      "Ġscientists": 7049,
      "omew": 7050,
      "month": 7051,
      "Ġfriends": 7052,
      "Ġmodify": 7053,
      "Ġdeny": 7054,
      "Ġresolved": 7055,
      "Ġfear": 7056,
      "ĠRather": 7057,
      "ĠAv": 7058,
      "IGN": 7059,
      "Ġculture": 7060,
      "Ġdeduct": 7061,
      "Ġstrike": 7062,
      "ĠEll": 7063,
      "Ġfault": 7064,
      "Ġallegedly": 7065,
      "Ġtechnological": 7066,
      "hearing": 7067,
      "Ġminority": 7068,
      "plus": 7069,
      "Ġprompt": 7070,
      "Ġteacher": 7071,
      "org": 7072,
      "pat": 7073,
      "ĠLondon": 7074,
      "Ġcorn": 7075,
      "Ġnuclear": 7076,
      "ellect": 7077,
      "Ġdidn": 7078,
      "Ġwarranty": 7079,
      "arr": 7080,
      "Ġappearance": 7081,
      "Ġdetails": 7082,
      "CP": 7083,
      "ĠRevenues": 7084,
      "Ġindepend": 7085,
      "ĠSumm": 7086,
      "Ġprecise": 7087,
      "Ġabsent": 7088,
      "retirement": 7089,
      "ĠMARK": 7090,
      "Ġmom": 7091,
      "asive": 7092,
      "ĠMem": 7093,
      "Ġroll": 7094,
      "Ġvisit": 7095,
      "Ġlove": 7096,
      "xic": 7097,
      "Ġrefers": 7098,
      "Ġimproperly": 7099,
      "deg": 7100,
      "ĠRealty": 7101,
      "rastructure": 7102,
      "irit": 7103,
      "Ġwild": 7104,
      "interest": 7105,
      "Ġsplit": 7106,
      "MI": 7107,
      "ĠAgency": 7108,
      "osen": 7109,
      "Ġconced": 7110,
      "rack": 7111,
      "Ġreliance": 7112,
      "ĠInstru": 7113,
      "ĠAustralia": 7114,
      "Ġresolve": 7115,
      "otive": 7116,
      "Ġweak": 7117,
      "Ġrecovered": 7118,
      "Ġtransf": 7119,
      "Ġinnov": 7120,
      "Ġhealthcare": 7121,
      "ĠCable": 7122,
      "Ġineffective": 7123,
      "Ġproc": 7124,
      "ĠEN": 7125,
      ".âĢĻâĢĻ": 7126,
      "Ġidentity": 7127,
      "ĠAnge": 7128,
      "ĠCanadian": 7129,
      "idence": 7130,
      "ĠYour": 7131,
      "Ġadapt": 7132,
      "Pro": 7133,
      "Ġleasing": 7134,
      "Ġcitizens": 7135,
      "Ġresponded": 7136,
      "Ġfine": 7137,
      "Ġapproximate": 7138,
      "Ġtraded": 7139,
      "market": 7140,
      "ĠIndeed": 7141,
      "Ġarrested": 7142,
      "ĠNorthern": 7143,
      "arged": 7144,
      "ĠFound": 7145,
      "ĠCust": 7146,
      "ĠRetirement": 7147,
      "Ġadult": 7148,
      "Ġ1972": 7149,
      "ĠSimil": 7150,
      "Ġpurchasing": 7151,
      "ĠDun": 7152,
      "Ġcontrovers": 7153,
      "LY": 7154,
      "Ġcapable": 7155,
      "olf": 7156,
      "ĠChurch": 7157,
      "Ġolder": 7158,
      "contract": 7159,
      "Ġredeem": 7160,
      "oes": 7161,
      "ta": 7162,
      "ĠHart": 7163,
      "Ġcoming": 7164,
      "ĠAllen": 7165,
      "ĠOk": 7166,
      "Ġlabel": 7167,
      "Ġcrop": 7168,
      "ram": 7169,
      "Ġpenalties": 7170,
      "Ġseparately": 7171,
      "ĠGermany": 7172,
      "ĠSTATEMENT": 7173,
      "Ġfilm": 7174,
      "orough": 7175,
      "enger": 7176,
      "Ġidentical": 7177,
      "Ġfamilies": 7178,
      "stone": 7179,
      "Ġsupplied": 7180,
      "Ġundersigned": 7181,
      "Incorporated": 7182,
      "Exhibit": 7183,
      "lines": 7184,
      "secured": 7185,
      "Ġbudget": 7186,
      "olic": 7187,
      "Ġgoals": 7188,
      "Ġparticipating": 7189,
      "Ġvalued": 7190,
      "Ġmerchandise": 7191,
      "Ġunlike": 7192,
      "Ġphrase": 7193,
      "Ġfle": 7194,
      "Company": 7195,
      "ĠRef": 7196,
      "Ġrelates": 7197,
      "REE": 7198,
      "Ġvessel": 7199,
      "ompson": 7200,
      "ĠMy": 7201,
      "Ġsuspect": 7202,
      "ĠHot": 7203,
      "Ġimpaired": 7204,
      "arian": 7205,
      "ĠAgreements": 7206,
      "Ġconnected": 7207,
      "Ġreligious": 7208,
      "can": 7209,
      "ĠWind": 7210,
      "Ġcold": 7211,
      "Ġjurisdictions": 7212,
      "role": 7213,
      "ĠCla": 7214,
      "Ġexpires": 7215,
      "Ġarrived": 7216,
      "No": 7217,
      "Ġmechanism": 7218,
      "ibilities": 7219,
      "ĠSam": 7220,
      "Ġclassification": 7221,
      "Ġinstallation": 7222,
      "ĠLLP": 7223,
      "Ġdiet": 7224,
      "ĠDon": 7225,
      "ĠFort": 7226,
      "ordin": 7227,
      "ague": 7228,
      "filed": 7229,
      "Ġdefici": 7230,
      "ĠConstruction": 7231,
      "ĠSever": 7232,
      "cean": 7233,
      "ĠBond": 7234,
      "atever": 7235,
      "Ġcertification": 7236,
      "Ġresidents": 7237,
      "ĠDE": 7238,
      "Ġdefend": 7239,
      "Ġlearned": 7240,
      "Ġcompetent": 7241,
      "Ġsequ": 7242,
      "edia": 7243,
      "TC": 7244,
      "Ġtrees": 7245,
      "Ġaccompl": 7246,
      "hips": 7247,
      "Ġillness": 7248,
      "ĠApproximately": 7249,
      "iler": 7250,
      "Ġveget": 7251,
      "Ġappearing": 7252,
      "Ġvoice": 7253,
      "Ġgoes": 7254,
      "DC": 7255,
      "ĠDani": 7256,
      "ĠBE": 7257,
      "Ġutilities": 7258,
      "Ġrequests": 7259,
      "Ġpromote": 7260,
      "Ġunus": 7261,
      "ĠVol": 7262,
      "ANTS": 7263,
      "Ġoperators": 7264,
      "HL": 7265,
      "Ġlegally": 7266,
      "vin": 7267,
      "Ġeat": 7268,
      "Ġdefic": 7269,
      "ĠCam": 7270,
      "ĠHunt": 7271,
      "ju": 7272,
      "Ġillust": 7273,
      "Ġlib": 7274,
      "Ġanticipates": 7275,
      "ĠRESUL": 7276,
      "uge": 7277,
      "ĠGross": 7278,
      "ĠLocal": 7279,
      "ĠManufact": 7280,
      "uls": 7281,
      "ĠMus": 7282,
      "Ġunion": 7283,
      "ĠWat": 7284,
      "Ġproduc": 7285,
      "Ġtrib": 7286,
      "ĠRate": 7287,
      "aly": 7288,
      "iet": 7289,
      "ĠLewis": 7290,
      "ĠMad": 7291,
      "ĠDeputy": 7292,
      "Ġreductions": 7293,
      "Ġunlawful": 7294,
      "Ġlots": 7295,
      "born": 7296,
      "ĠGerman": 7297,
      "Ġdoesn": 7298,
      "Ġ93": 7299,
      "ĠInvestments": 7300,
      "ĠUse": 7301,
      "ENS": 7302,
      "Ġmutual": 7303,
      "ĠThen": 7304,
      "Ġclosely": 7305,
      "oen": 7306,
      "Ġopinions": 7307,
      "Ġtree": 7308,
      "ss": 7309,
      "Ġplastic": 7310,
      "ĠThompson": 7311,
      "ronics": 7312,
      "CUS": 7313,
      "Ġdemonstrated": 7314,
      "ework": 7315,
      "Ġforeclosure": 7316,
      "Ġliquidation": 7317,
      "Ġtrying": 7318,
      "Ġpeace": 7319,
      "ĠInf": 7320,
      "Ġchurch": 7321,
      "Ġoperational": 7322,
      "Ġbankruptcy": 7323,
      "ĠIncludes": 7324,
      "rete": 7325,
      "Ġevaluate": 7326,
      "Ġleaves": 7327,
      "Ġprov": 7328,
      "aign": 7329,
      "Ġinstalled": 7330,
      "Ġ___": 7331,
      "Ġdivers": 7332,
      "Ġinterf": 7333,
      "ĠGo": 7334,
      "Ġang": 7335,
      "Ġ#": 7336,
      "Ġeventually": 7337,
      "Ġofficials": 7338,
      "ĠBet": 7339,
      "rose": 7340,
      "citing": 7341,
      "lete": 7342,
      "ecessor": 7343,
      "roleum": 7344,
      "Ġexempt": 7345,
      "SFAS": 7346,
      "ĠConsequently": 7347,
      "Ġexceeded": 7348,
      "ĠSubordinated": 7349,
      "Ġnovo": 7350,
      "Ġadvice": 7351,
      "ĠDu": 7352,
      "Ġweapon": 7353,
      "ĠCommissioner": 7354,
      "Ġfinds": 7355,
      "----------------": 7356,
      "Ġeast": 7357,
      "Ġoverruled": 7358,
      "Ġfit": 7359,
      "utory": 7360,
      "Ġstockholder": 7361,
      "Ġinfring": 7362,
      "Ġmisrepresent": 7363,
      "ĠEmployees": 7364,
      "Ġspeech": 7365,
      "IP": 7366,
      "free": 7367,
      "ĠTest": 7368,
      "iner": 7369,
      "erman": 7370,
      "ĠProceed": 7371,
      "ĠAsia": 7372,
      "Ġec": 7373,
      "ĠFAS": 7374,
      "Ġcredits": 7375,
      "Ġsurvey": 7376,
      "ĠRem": 7377,
      "rm": 7378,
      "Ġforfe": 7379,
      "ĠDenver": 7380,
      "Ġdisturb": 7381,
      "ĠSen": 7382,
      "Ġmemor": 7383,
      "Ġbears": 7384,
      "irs": 7385,
      "Ġhousehold": 7386,
      "Ġdealing": 7387,
      "ĠFrance": 7388,
      "ĠAdministrative": 7389,
      "ography": 7390,
      "Ġreasoning": 7391,
      "Ġperiodic": 7392,
      "Ġsignal": 7393,
      "Ġjudgments": 7394,
      "orders": 7395,
      "erved": 7396,
      "Ġheavy": 7397,
      "Ġmic": 7398,
      "Ġvit": 7399,
      "Ġkept": 7400,
      "Ġforced": 7401,
      "elfare": 7402,
      "Ġshooting": 7403,
      "ensity": 7404,
      "ewise": 7405,
      "ocol": 7406,
      "Ġ57": 7407,
      "ellow": 7408,
      "ĠColumbia": 7409,
      "ĠHuman": 7410,
      "Ġentertain": 7411,
      "Ġmisstatement": 7412,
      "ossible": 7413,
      "Ġjail": 7414,
      "Ġcast": 7415,
      "ĠHa": 7416,
      "omb": 7417,
      "ĠJournal": 7418,
      "ĠNAS": 7419,
      "Ġ1971": 7420,
      "Ġexcessive": 7421,
      "Ġapprais": 7422,
      "Ġ2019": 7423,
      "aneous": 7424,
      "ortion": 7425,
      "Ġprojected": 7426,
      "urban": 7427,
      "ĠConvertible": 7428,
      "Ġhazardous": 7429,
      "fill": 7430,
      "ront": 7431,
      "Ġinfrastructure": 7432,
      "ĠIsra": 7433,
      "Ġoccurrence": 7434,
      "ingham": 7435,
      "ĠRuss": 7436,
      "Ġgaming": 7437,
      "ignment": 7438,
      "Ġsolid": 7439,
      "regard": 7440,
      "ĠMicro": 7441,
      "MB": 7442,
      "Ġexclus": 7443,
      "mond": 7444,
      "Ġpointed": 7445,
      "ĠPU": 7446,
      "Ġtenants": 7447,
      "OME": 7448,
      "ĠOwnership": 7449,
      "ĠBook": 7450,
      "Ġer": 7451,
      "Ġhabeas": 7452,
      "entional": 7453,
      "Ġweb": 7454,
      "Ġelectrical": 7455,
      "04": 7456,
      "rimin": 7457,
      "Ġones": 7458,
      "essional": 7459,
      "Ġsigns": 7460,
      "Ġpractical": 7461,
      "Ġexposed": 7462,
      "degree": 7463,
      "ĠDem": 7464,
      "uter": 7465,
      "Ġbecoming": 7466,
      "Ġment": 7467,
      "Ġconce": 7468,
      "Continued": 7469,
      "Ġdisclosed": 7470,
      "Ġratios": 7471,
      "ĠJes": 7472,
      "lord": 7473,
      "Ġ66": 7474,
      "FC": 7475,
      "rell": 7476,
      "Ġsn": 7477,
      "SON": 7478,
      "Ġ71": 7479,
      "Ġspecialty": 7480,
      "ĠPC": 7481,
      "ĠEQUITY": 7482,
      "Ġefficiency": 7483,
      "ĠBru": 7484,
      "Ġsupervision": 7485,
      "Ġpharmaceutical": 7486,
      "erclaim": 7487,
      "ĠFiled": 7488,
      "ĠDISCUS": 7489,
      "Ġdetermines": 7490,
      "Ġmiddle": 7491,
      "lf": 7492,
      "oring": 7493,
      "omy": 7494,
      "Ġunnecess": 7495,
      "ĠCollege": 7496,
      "Ġinfection": 7497,
      "Ġideas": 7498,
      "Ġupd": 7499,
      "Ġunfair": 7500,
      "ĠAvenue": 7501,
      "Ġcontempt": 7502,
      "ĠBanks": 7503,
      "Ġsuitable": 7504,
      "Ġ250": 7505,
      "ĠEquipment": 7506,
      "istry": 7507,
      "Ġexperts": 7508,
      "ĠPetitioner": 7509,
      "Ġinterested": 7510,
      "ĠTurn": 7511,
      "Ġchannels": 7512,
      "Ġaggravated": 7513,
      "Ġperhaps": 7514,
      "Ġassuming": 7515,
      "ĠRESULTS": 7516,
      "Ġprobate": 7517,
      "Ġemp": 7518,
      "ĠTransactions": 7519,
      "adequ": 7520,
      "Ġshared": 7521,
      "Ġbattery": 7522,
      "lection": 7523,
      "ĠDistribution": 7524,
      "Ġreplaced": 7525,
      "ologist": 7526,
      "Ġvictims": 7527,
      "Ġobjects": 7528,
      "Ġdissenting": 7529,
      "ĠRisk": 7530,
      "Ġconsec": 7531,
      "Ġneighbor": 7532,
      "Ġgold": 7533,
      "ounce": 7534,
      "ĠIP": 7535,
      "IA": 7536,
      "ike": 7537,
      "Ġdestroy": 7538,
      "ĠMcK": 7539,
      "ĠWH": 7540,
      "from": 7541,
      "Ġexpertise": 7542,
      "Ġjoining": 7543,
      "bar": 7544,
      "note": 7545,
      "Ġautomatically": 7546,
      "ĠAfrica": 7547,
      "Ġcertainly": 7548,
      "Ġprofitability": 7549,
      "ellectual": 7550,
      "Ġtransition": 7551,
      "Ġsummarized": 7552,
      "ĠRepublic": 7553,
      "unct": 7554,
      "Ġpaint": 7555,
      "uling": 7556,
      "ROM": 7557,
      "half": 7558,
      "otic": 7559,
      "Ġarbitr": 7560,
      "1979": 7561,
      "Ġparental": 7562,
      "ĠSil": 7563,
      "Ġgraph": 7564,
      "ĠMARKET": 7565,
      "ĠDISCUSSION": 7566,
      "].": 7567,
      "lications": 7568,
      "Ġpublication": 7569,
      "itis": 7570,
      "atories": 7571,
      "ĠKey": 7572,
      "atin": 7573,
      "ĠMutual": 7574,
      "Ġpleadings": 7575,
      "Ġlitig": 7576,
      "isting": 7577,
      "ĠGrant": 7578,
      "lick": 7579,
      "1980": 7580,
      "Ġmachines": 7581,
      "reedom": 7582,
      "imm": 7583,
      "omer": 7584,
      "Ġmobile": 7585,
      "Ġvot": 7586,
      "97": 7587,
      "Ġallocation": 7588,
      "Ġassumption": 7589,
      "Ġburglary": 7590,
      "ĠReview": 7591,
      "Ġreinsurance": 7592,
      "Ġjustify": 7593,
      "Ġexamine": 7594,
      "Ġessentially": 7595,
      "Ġfiles": 7596,
      "ualty": 7597,
      "Ġhotel": 7598,
      "Ġsomew": 7599,
      "Ġexplicit": 7600,
      "rogen": 7601,
      "Ġcorp": 7602,
      "umin": 7603,
      "viously": 7604,
      "Ġglass": 7605,
      "kes": 7606,
      "Ġchancellor": 7607,
      "Ġconsumers": 7608,
      "ean": 7609,
      "ius": 7610,
      "Ġrape": 7611,
      "ĠTod": 7612,
      "Ġformation": 7613,
      "prises": 7614,
      "Ġgrade": 7615,
      "Comm": 7616,
      "ĠIsland": 7617,
      "ding": 7618,
      "ĠAccounts": 7619,
      "Ġstructures": 7620,
      "Ġsecondary": 7621,
      "Ġseverance": 7622,
      "Ġ62": 7623,
      "ĠGulf": 7624,
      "Ġdeclaratory": 7625,
      "Ġdisciplinary": 7626,
      "abled": 7627,
      "ĠCA": 7628,
      "Ġpromissory": 7629,
      "Ġmarital": 7630,
      "Ġbid": 7631,
      "Ġ96": 7632,
      "Ġvoluntarily": 7633,
      "Ġsupplier": 7634,
      "ĠJur": 7635,
      "ĠCosts": 7636,
      "Ġdifficulty": 7637,
      "ĠCooper": 7638,
      "pass": 7639,
      "Ġmeant": 7640,
      "Ġready": 7641,
      "olis": 7642,
      "Ġinflation": 7643,
      "iliated": 7644,
      "Ġnewsp": 7645,
      "top": 7646,
      "Ġattempts": 7647,
      "Ġexternal": 7648,
      "OM": 7649,
      "Ġproxim": 7650,
      "elson": 7651,
      "Ġconversation": 7652,
      "81": 7653,
      "iling": 7654,
      "ĠWalk": 7655,
      "Ġ72": 7656,
      "Ġdisclose": 7657,
      "Ġ2020": 7658,
      "iously": 7659,
      "Ġcancell": 7660,
      "life": 7661,
      "uro": 7662,
      "Ġimages": 7663,
      "Ġquarters": 7664,
      "ĠOCGA": 7665,
      "ogen": 7666,
      "Ġfinally": 7667,
      "ita": 7668,
      "Ġacid": 7669,
      "elled": 7670,
      "Ġinitiated": 7671,
      "Ġincur": 7672,
      "Ġviolate": 7673,
      "HA": 7674,
      "Ġcomments": 7675,
      "TORS": 7676,
      "ĠGrand": 7677,
      "worth": 7678,
      "ĠIndex": 7679,
      "Ġobvious": 7680,
      "Ġwilling": 7681,
      "Ġcreation": 7682,
      "Ġintegration": 7683,
      "Ġbag": 7684,
      "amus": 7685,
      "900": 7686,
      "Ġsatellite": 7687,
      "06": 7688,
      "ĠAdditional": 7689,
      "Ġequally": 7690,
      "Ġenhanced": 7691,
      "Ġrare": 7692,
      "Ġreclass": 7693,
      "Ġcounterclaim": 7694,
      "lam": 7695,
      "Ġproxy": 7696,
      "Ġparking": 7697,
      "zy": 7698,
      "forming": 7699,
      "Ġdark": 7700,
      "ĠRail": 7701,
      "Ġexch": 7702,
      "Ġ64": 7703,
      "www": 7704,
      "ĠLittle": 7705,
      "Ġattend": 7706,
      "ĠWall": 7707,
      "Ġphysicians": 7708,
      "Ġcondemn": 7709,
      "ĠSched": 7710,
      "net": 7711,
      "Ġperforming": 7712,
      "Ġuncertainties": 7713,
      "Ġencount": 7714,
      "Ġunderwriting": 7715,
      "ĠBen": 7716,
      "Ġcool": 7717,
      "Ġkids": 7718,
      "ancery": 7719,
      "Ġsolic": 7720,
      "Ġharmless": 7721,
      "laugh": 7722,
      "heast": 7723,
      "Ġfiber": 7724,
      "Ġacquiring": 7725,
      "Ġrefusing": 7726,
      "Ġacceptable": 7727,
      "Ġregions": 7728,
      "ĠFire": 7729,
      "Ġteaching": 7730,
      "Ġ115": 7731,
      "Ġstopped": 7732,
      "Ġtrends": 7733,
      "125": 7734,
      "OG": 7735,
      "ardy": 7736,
      "Ġinability": 7737,
      "ĠDebt": 7738,
      "ĠFuture": 7739,
      "ĠBY": 7740,
      "Ġinterrog": 7741,
      "Ġinference": 7742,
      "pective": 7743,
      "ĠRad": 7744,
      "Ġunsecured": 7745,
      "Ġbit": 7746,
      "Ġobjected": 7747,
      "ĠSupplemental": 7748,
      "formance": 7749,
      "ĠSheets": 7750,
      "Ġthousand": 7751,
      "ĠRog": 7752,
      "Ġtissue": 7753,
      "Ġforeseeable": 7754,
      "Ġdistinction": 7755,
      "Ġmanufactures": 7756,
      "ĠCoast": 7757,
      "ĠIssu": 7758,
      "ĠAlex": 7759,
      "ĠChanges": 7760,
      "Ġdisorder": 7761,
      "OUS": 7762,
      "Ġ:": 7763,
      "ĠNRS": 7764,
      "ĠSP": 7765,
      "Ġcorresponding": 7766,
      "Ġhumans": 7767,
      "Ġdistinguish": 7768,
      "Ġregularly": 7769,
      "Ġ63": 7770,
      "Ġwarehouse": 7771,
      "ĠSpecifically": 7772,
      "Ġsharing": 7773,
      "ĠSUPP": 7774,
      "abetes": 7775,
      "Ġcam": 7776,
      "juana": 7777,
      "ĠTheir": 7778,
      "ĠGenerally": 7779,
      "ĠAfrican": 7780,
      "Ġ87": 7781,
      "Ġroutine": 7782,
      "Ġimmune": 7783,
      "Ġsufficiently": 7784,
      "Ġintroduce": 7785,
      "Ġtheft": 7786,
      "eller": 7787,
      "Ġintend": 7788,
      "iliar": 7789,
      "Ġjudges": 7790,
      "ĠKingdom": 7791,
      "Ġtrou": 7792,
      "Ġascertain": 7793,
      "Ġnonc": 7794,
      "ĠIL": 7795,
      "Ġhereto": 7796,
      "stantial": 7797,
      "Ġreviews": 7798,
      "ĠRelations": 7799,
      "Ġfract": 7800,
      "Ġbus": 7801,
      "ĠMotor": 7802,
      "Ġinterpreted": 7803,
      "ĠCross": 7804,
      "Ġprotein": 7805,
      "Ġanalyz": 7806,
      "Ġlaboratory": 7807,
      "Ġslightly": 7808,
      "holding": 7809,
      "Ġ82": 7810,
      "Ġdelinqu": 7811,
      "Ġclaiming": 7812,
      "xi": 7813,
      "Ġprecedent": 7814,
      "onsin": 7815,
      "Ġincomp": 7816,
      "1978": 7817,
      "Ġperfect": 7818,
      "Ġcommod": 7819,
      "ĠFourth": 7820,
      "ker": 7821,
      "Ġrace": 7822,
      "Ġmari": 7823,
      "ĠFL": 7824,
      "rieved": 7825,
      "ĠJudgment": 7826,
      "ĠMO": 7827,
      "Ġhandling": 7828,
      "Ġ92": 7829,
      "Ġprepare": 7830,
      "ĠBarn": 7831,
      "Ġconstructed": 7832,
      "Ġ106": 7833,
      "ĠHenry": 7834,
      "Ġemissions": 7835,
      "102": 7836,
      "Ġexplanation": 7837,
      "arp": 7838,
      "isconsin": 7839,
      "Ġdeclaration": 7840,
      "ĠPlant": 7841,
      "laws": 7842,
      "ĠTri": 7843,
      "ĠSix": 7844,
      "101": 7845,
      "Ġtaxpay": 7846,
      "Ġ76": 7847,
      "ĠORS": 7848,
      "Ġpatterns": 7849,
      "Ġ91": 7850,
      "Ġborrower": 7851,
      "idu": 7852,
      "Ġbinding": 7853,
      "Ġalt": 7854,
      "Ġprevailing": 7855,
      "Ġice": 7856,
      "ette": 7857,
      "Ġriver": 7858,
      "Ġuniform": 7859,
      "Ġintangible": 7860,
      "Ġexploration": 7861,
      "ĠShort": 7862,
      "Ġaccurate": 7863,
      "cluding": 7864,
      "stein": 7865,
      "Ġrehab": 7866,
      "Ġconcluding": 7867,
      "ĠMess": 7868,
      "Ġ77": 7869,
      "ĠMaster": 7870,
      "Ġwireless": 7871,
      "Ġinterstate": 7872,
      "iley": 7873,
      "Ġbackground": 7874,
      "Ġ1969": 7875,
      "Ġnecessity": 7876,
      "Ġacknowledged": 7877,
      "ICI": 7878,
      "ola": 7879,
      "ĠBuilding": 7880,
      "ĠMaryland": 7881,
      "Ġadults": 7882,
      "Ġsaying": 7883,
      "96": 7884,
      "erly": 7885,
      "ĠINTER": 7886,
      "Ġrecip": 7887,
      "Ġ67": 7888,
      "Ġantib": 7889,
      "Ġdeposition": 7890,
      "Int": 7891,
      "Ġsupplemental": 7892,
      "greg": 7893,
      "isputed": 7894,
      "ommod": 7895,
      "Ġutilize": 7896,
      "ulp": 7897,
      "Ġimper": 7898,
      "ĠSHARE": 7899,
      "ĠChristian": 7900,
      "Ġeverything": 7901,
      "Ġcharacterized": 7902,
      "hy": 7903,
      "ads": 7904,
      "Ġremember": 7905,
      "Ġunivers": 7906,
      "iorari": 7907,
      "Ġcry": 7908,
      "ĠNone": 7909,
      "Ġincreasingly": 7910,
      "Ġstre": 7911,
      "Ġpicture": 7912,
      "ĠParent": 7913,
      "Ġfirearm": 7914,
      "Ġarguing": 7915,
      "ĠAG": 7916,
      "iny": 7917,
      "Ġwinter": 7918,
      "ĠAtlantic": 7919,
      "Ġdiscretionary": 7920,
      "eenth": 7921,
      "Ġcollective": 7922,
      "Ġdisregard": 7923,
      "ĠCommunity": 7924,
      "Ġpregn": 7925,
      "Ġ94": 7926,
      "ĠWright": 7927,
      "1984": 7928,
      "ĠSant": 7929,
      "ĠPen": 7930,
      "Ġlegit": 7931,
      "ĠJustices": 7932,
      "ĠDIR": 7933,
      "Ġproposition": 7934,
      "eder": 7935,
      "Ġexemption": 7936,
      "Ġsubscrib": 7937,
      "ĠNatural": 7938,
      "Ġformula": 7939,
      "olved": 7940,
      "ĠTRANS": 7941,
      "Ġ81": 7942,
      "Ġunsu": 7943,
      "93": 7944,
      "Ġextremely": 7945,
      "Ġvolat": 7946,
      "Ġchain": 7947,
      "1977": 7948,
      "Ġunrealized": 7949,
      "ĠPhill": 7950,
      "ĠANAL": 7951,
      "Ġeyes": 7952,
      "Ġ84": 7953,
      "Ġregulated": 7954,
      "ĠMobile": 7955,
      "Ġunusual": 7956,
      "Ġpump": 7957,
      "1982": 7958,
      "ĠConst": 7959,
      "People": 7960,
      "Ġcompetes": 7961,
      "ĠREV": 7962,
      "Ġanticipate": 7963,
      "sect": 7964,
      "ĠGlobal": 7965,
      "ĠLear": 7966,
      "partments": 7967,
      "Ġbonus": 7968,
      "Ġwholesale": 7969,
      "DS": 7970,
      "ĠBre": 7971,
      "ĠWisconsin": 7972,
      "Ġanswered": 7973,
      "Ind": 7974,
      "Ġhappened": 7975,
      "othes": 7976,
      "ĠDespite": 7977,
      "Ġsea": 7978,
      "Ġsolar": 7979,
      "Ġ83": 7980,
      "inder": 7981,
      "omen": 7982,
      "Ġmining": 7983,
      "met": 7984,
      "icially": 7985,
      "Ġpublicly": 7986,
      "zz": 7987,
      "Ġabsor": 7988,
      "92": 7989,
      "ĠPUBL": 7990,
      "Ġassessments": 7991,
      "ĠPhase": 7992,
      "ĠVan": 7993,
      "istricts": 7994,
      "Management": 7995,
      "ĠREPORTS": 7996,
      "Ġinvesting": 7997,
      "ĠArch": 7998,
      "Ġbargaining": 7999,
      "amework": 8000,
      "orrect": 8001,
      "isher": 8002,
      "unto": 8003,
      "Ġconsumption": 8004,
      "ĠRead": 8005,
      "YSIS": 8006,
      "Ġremote": 8007,
      "ĠBroad": 8008,
      "Ġreconsid": 8009,
      "Ġexpectations": 8010,
      "Ġpiece": 8011,
      "ĠTreasurer": 8012,
      "Ġsued": 8013,
      "ĠNeither": 8014,
      "Ġfelt": 8015,
      "ĠRy": 8016,
      "ERC": 8017,
      "ĠBa": 8018,
      "Ġtreas": 8019,
      "Ġobjectives": 8020,
      "asers": 8021,
      "Ġrapidly": 8022,
      "Ġrebut": 8023,
      "Ġagricultural": 8024,
      "Ġofferings": 8025,
      "Ġundisputed": 8026,
      "87": 8027,
      "Ġinnoc": 8028,
      "Ġinad": 8029,
      "ĠANALYSIS": 8030,
      "ĠOrgan": 8031,
      "Ġrevealed": 8032,
      "Ġqualify": 8033,
      "ĠRoberts": 8034,
      "Ġmolec": 8035,
      "Ġindividually": 8036,
      "ĠCook": 8037,
      "ĠTennessee": 8038,
      "Ġwebsite": 8039,
      "Ġfigure": 8040,
      "86": 8041,
      "ĠInit": 8042,
      "ĠAccountants": 8043,
      "laughter": 8044,
      "Ġconsiderations": 8045,
      "alle": 8046,
      "RC": 8047,
      "Ġ400": 8048,
      "opy": 8049,
      "Ġclos": 8050,
      "Ġben": 8051,
      "NE": 8052,
      "ĠPartnerships": 8053,
      "Ġhears": 8054,
      "aling": 8055,
      "ache": 8056,
      "ĠINS": 8057,
      "Ġindicating": 8058,
      "Ġutilization": 8059,
      "ears": 8060,
      "Ġ86": 8061,
      "94": 8062,
      "07": 8063,
      "ĠEarnings": 8064,
      "Ġspect": 8065,
      "ĠBrook": 8066,
      "TY": 8067,
      "Ġenterprise": 8068,
      "'re": 8069,
      "rich": 8070,
      "rison": 8071,
      "Ġintellectual": 8072,
      "Ġcommencing": 8073,
      "Ġ125": 8074,
      "Ġviews": 8075,
      "Ġaccommod": 8076,
      "Ġheadquarters": 8077,
      "ĠEPA": 8078,
      "Ġtot": 8079,
      "Ġviewed": 8080,
      "Ġsurplus": 8081,
      "Ġpreserve": 8082,
      "Ġpermission": 8083,
      "ĠJefferson": 8084,
      "ifiable": 8085,
      "anches": 8086,
      "Ġtub": 8087,
      "ĠMit": 8088,
      "Ġhospitals": 8089,
      "Ġnormally": 8090,
      "ĠTen": 8091,
      "Ġinventories": 8092,
      "Ġopposed": 8093,
      "appropri": 8094,
      "Ġmarijuana": 8095,
      "Ġthinking": 8096,
      "Ġperpet": 8097,
      "ĠAuthority": 8098,
      "Ġpurchaser": 8099,
      "ĠHOLD": 8100,
      "ounded": 8101,
      "Ġmitigating": 8102,
      "Ġfeature": 8103,
      "Ġsubstances": 8104,
      "Ġsensitive": 8105,
      "Ġcampaign": 8106,
      "ĠLiber": 8107,
      "Ġrailroad": 8108,
      "Ġmarried": 8109,
      "Ġforces": 8110,
      "ION": 8111,
      "Ġmotiv": 8112,
      "ĠTim": 8113,
      "Ġvalu": 8114,
      "Ġunnecessary": 8115,
      "ĠDepos": 8116,
      "CLOS": 8117,
      "Ġrepairs": 8118,
      "Ġcontemplated": 8119,
      "Ġsubstantive": 8120,
      "Ġtwice": 8121,
      "aste": 8122,
      "icks": 8123,
      "ano": 8124,
      "eer": 8125,
      "Ġhttp": 8126,
      "Ġnom": 8127,
      "Ġremedies": 8128,
      "Ġimpossible": 8129,
      "ĠFA": 8130,
      "inery": 8131,
      "DITION": 8132,
      "ĠClaim": 8133,
      "Ġrepayment": 8134,
      "da": 8135,
      "ĠFre": 8136,
      "Ġassertion": 8137,
      "ĠDIREC": 8138,
      "84": 8139,
      "Ġfresh": 8140,
      "Ġcellular": 8141,
      "LEMENT": 8142,
      "Ġwhatever": 8143,
      "Ġast": 8144,
      "amine": 8145,
      "Ġoccupancy": 8146,
      "ests": 8147,
      "Ġestablishment": 8148,
      "ressed": 8149,
      "Ġarmed": 8150,
      "Ġcreates": 8151,
      "Ġparticipant": 8152,
      "gu": 8153,
      "ĠProtection": 8154,
      "1976": 8155,
      "ship": 8156,
      "ĠâĢ¢": 8157,
      "Ġreliable": 8158,
      "Ġvisual": 8159,
      "ĠAmount": 8160,
      "Ġpermitting": 8161,
      "Ġlender": 8162,
      "Ġmortgages": 8163,
      "Ġimposition": 8164,
      "Ġstruck": 8165,
      "Ġproduces": 8166,
      "ĠINCOME": 8167,
      "ĠThree": 8168,
      "iers": 8169,
      "Ġgar": 8170,
      "essions": 8171,
      "collect": 8172,
      "ĠFred": 8173,
      "Ġarose": 8174,
      "iduci": 8175,
      "Ġinception": 8176,
      "Ġaggravating": 8177,
      "Ġanalog": 8178,
      "Ġparte": 8179,
      "Mo": 8180,
      "Ġdiscipline": 8181,
      "Ġanswers": 8182,
      "ĠPan": 8183,
      "Ġneglect": 8184,
      "Ġinstallments": 8185,
      "Ġwall": 8186,
      "Ġchance": 8187,
      "ashion": 8188,
      "Ġmoment": 8189,
      "Ġcycle": 8190,
      "ĠPress": 8191,
      "Ġrig": 8192,
      "key": 8193,
      "ĠDISCLOS": 8194,
      "Ġinspection": 8195,
      "Ġrecording": 8196,
      "ĠSIGN": 8197,
      "Ġthreatened": 8198,
      "Ġthereunto": 8199,
      "Ġinadequ": 8200,
      "1981": 8201,
      "ĠCole": 8202,
      "Ġmedium": 8203,
      "rel": 8204,
      "Ġspouse": 8205,
      "ĠNever": 8206,
      "Ġvesting": 8207,
      "Ġarticles": 8208,
      "bell": 8209,
      "Ġfurnished": 8210,
      "ĠBoy": 8211,
      "Ġtested": 8212,
      "glas": 8213,
      "mes": 8214,
      "ĠLu": 8215,
      "Ġtrain": 8216,
      "Ġnotified": 8217,
      "Rev": 8218,
      "useum": 8219,
      "ĠCreek": 8220,
      "Ġdiscrimination": 8221,
      "ka": 8222,
      "ĠBorrower": 8223,
      "ĠPARTNERS": 8224,
      "ĠPrem": 8225,
      "ny": 8226,
      "1993": 8227,
      "ĠSchedules": 8228,
      "Ġobjections": 8229,
      "ĠCHAN": 8230,
      "If": 8231,
      "1987": 8232,
      "ĠRobinson": 8233,
      "Ġdesire": 8234,
      "roller": 8235,
      "Ġexamples": 8236,
      "ĠHistor": 8237,
      "ĠTechnologies": 8238,
      "Ġspirit": 8239,
      "ĠAmong": 8240,
      "Ġ101": 8241,
      "Ġ=": 8242,
      "Ġsatisfaction": 8243,
      "apping": 8244,
      "Ġcorpus": 8245,
      "83": 8246,
      "Ġphotographs": 8247,
      "TICE": 8248,
      "Ġasking": 8249,
      "isco": 8250,
      "Ġsuc": 8251,
      "Ġhereof": 8252,
      "Ġkilling": 8253,
      "itative": 8254,
      "ureau": 8255,
      "Ġfrequency": 8256,
      "ĠActual": 8257,
      "Ġbra": 8258,
      "ĠGre": 8259,
      "making": 8260,
      "ĠCap": 8261,
      "ollars": 8262,
      "ĠSociety": 8263,
      "Ġdesigns": 8264,
      "Ġsample": 8265,
      "oln": 8266,
      "ĠSocial": 8267,
      "1975": 8268,
      "ĠJac": 8269,
      "gom": 8270,
      "OT": 8271,
      "ruption": 8272,
      "lah": 8273,
      "ĠTransport": 8274,
      "Ġpipeline": 8275,
      "Ġintentional": 8276,
      "ĠThereafter": 8277,
      "Ġdisputed": 8278,
      "idance": 8279,
      "ĠLar": 8280,
      "eding": 8281,
      "Ġcompel": 8282,
      "Ġmainly": 8283,
      "lan": 8284,
      "Ġgenerating": 8285,
      "Ġfoundation": 8286,
      "Ġcircumstance": 8287,
      "Ġ1960": 8288,
      "Ġdriven": 8289,
      "Ġeliminate": 8290,
      "person": 8291,
      "Ġinitiative": 8292,
      "ĠLind": 8293,
      "Ġsynd": 8294,
      "Ġexpression": 8295,
      "olitan": 8296,
      "acent": 8297,
      "HN": 8298,
      "Ġflood": 8299,
      "Stat": 8300,
      "Ġprivacy": 8301,
      "Ġ119": 8302,
      "ĠGR": 8303,
      "Ġ74": 8304,
      "Ġdevelopments": 8305,
      "Americ": 8306,
      "Ġcalculation": 8307,
      "ĠWalker": 8308,
      "ĠPOL": 8309,
      "Ġfields": 8310,
      "serv": 8311,
      "apolis": 8312,
      "Ġdifficulties": 8313,
      "Ġchemicals": 8314,
      "practice": 8315,
      "Ġwages": 8316,
      "liant": 8317,
      "ĠChildren": 8318,
      "ĠNW": 8319,
      "ĠOTS": 8320,
      "ulg": 8321,
      "Ġeasement": 8322,
      "ĠAsset": 8323,
      "andum": 8324,
      "82": 8325,
      "Ġresource": 8326,
      "Ġproposal": 8327,
      "gomery": 8328,
      "Ġbodies": 8329,
      "Ġspending": 8330,
      "Ġonto": 8331,
      "750": 8332,
      "udd": 8333,
      "Ġcogn": 8334,
      "eman": 8335,
      "ĠCur": 8336,
      "irmingham": 8337,
      "Ġattempting": 8338,
      "Ġcommissioner": 8339,
      "Ġretired": 8340,
      "Ġcomputers": 8341,
      "Ġrecommendation": 8342,
      "Ġnegotiations": 8343,
      "Ġdegrees": 8344,
      "Ġimag": 8345,
      "ario": 8346,
      "pping": 8347,
      "ilitation": 8348,
      "ailable": 8349,
      "ĠConf": 8350,
      "PL": 8351,
      "ords": 8352,
      "Ġexpired": 8353,
      "Ġisol": 8354,
      "Ġcoc": 8355,
      "ethe": 8356,
      "GES": 8357,
      "Ġoptim": 8358,
      "Ġwor": 8359,
      "Ġ1968": 8360,
      "FORM": 8361,
      "vals": 8362,
      "HS": 8363,
      "ĠMir": 8364,
      "Ġrespondents": 8365,
      "Ġmistrial": 8366,
      "ĠKe": 8367,
      "ĠBEN": 8368,
      "continued": 8369,
      "ECU": 8370,
      "ĠKRS": 8371,
      "Ġcertiorari": 8372,
      "mat": 8373,
      "Ġhistorically": 8374,
      "ĠSimilarly": 8375,
      "Ġdefine": 8376,
      "Ġbriefs": 8377,
      "bo": 8378,
      "Ġadding": 8379,
      "Ġencourage": 8380,
      "ĠWorkers": 8381,
      "ĠOFFIC": 8382,
      "Ġsugar": 8383,
      "ĠProfessional": 8384,
      "uine": 8385,
      "Ġintr": 8386,
      "Ġx": 8387,
      "ĠRepresent": 8388,
      "ĠLy": 8389,
      "atern": 8390,
      "1986": 8391,
      "ĠIsrael": 8392,
      "Ġdelays": 8393,
      "1983": 8394,
      "ĠSignificant": 8395,
      "ĠBirmingham": 8396,
      "add": 8397,
      "Ġhearsay": 8398,
      "asts": 8399,
      "ĠAFF": 8400,
      "ĠACCOUNTANTS": 8401,
      "Ġsuffering": 8402,
      "ĠAdams": 8403,
      "Ġspot": 8404,
      "Ġwidely": 8405,
      "Ġancient": 8406,
      "Ġmandamus": 8407,
      "ĠNumber": 8408,
      "1997": 8409,
      "ĠDouglas": 8410,
      "iduciary": 8411,
      "1985": 8412,
      "Ġchannel": 8413,
      "ressive": 8414,
      "ĠMontgomery": 8415,
      "Ġswitch": 8416,
      "Ġexpensed": 8417,
      "aver": 8418,
      "rations": 8419,
      "Ġmission": 8420,
      "Ġhair": 8421,
      "Ġexplo": 8422,
      "Ġcomparison": 8423,
      "Ġconducting": 8424,
      "ĠVII": 8425,
      "ĠRus": 8426,
      "itc": 8427,
      "uity": 8428,
      "Ġseparation": 8429,
      "rian": 8430,
      "Ġguide": 8431,
      "Ġcars": 8432,
      "UM": 8433,
      "ĠDid": 8434,
      "Ġdatabase": 8435,
      "Ġreadily": 8436,
      "Ġpassenger": 8437,
      "Ġsucceed": 8438,
      "Ġrepro": 8439,
      "IBOR": 8440,
      "Ġuncertainty": 8441,
      "ĠLos": 8442,
      "ror": 8443,
      "Ġlooked": 8444,
      "Ġfemale": 8445,
      "ĠMedicare": 8446,
      "ĠEdward": 8447,
      "ĠOm": 8448,
      "Ġcarefully": 8449,
      "isite": 8450,
      "ĠSUPPLEMENT": 8451,
      "incoln": 8452,
      "Ġallegation": 8453,
      "ĠMel": 8454,
      "lined": 8455,
      "Ġpollution": 8456,
      "Ġprohibition": 8457,
      "ynam": 8458,
      "Ġcoast": 8459,
      "Ġpostconviction": 8460,
      "ĠCL": 8461,
      "Ġdistricts": 8462,
      "gical": 8463,
      "Ġreorganization": 8464,
      "ĠDonald": 8465,
      "Ġexceeds": 8466,
      "Ġallege": 8467,
      "Ġpref": 8468,
      "1995": 8469,
      "achment": 8470,
      "ĠSummary": 8471,
      "izable": 8472,
      "ĠExcept": 8473,
      "Ġdissolution": 8474,
      "orial": 8475,
      "ĠLaws": 8476,
      "Ġgames": 8477,
      "ĠJapanese": 8478,
      "Ġfirms": 8479,
      "Ġconfession": 8480,
      "Ġdeter": 8481,
      "Ġintox": 8482,
      "Ġexclude": 8483,
      "Ġtow": 8484,
      "ĠStan": 8485,
      "Ġfamiliar": 8486,
      "Ġchallenging": 8487,
      "ested": 8488,
      "Ġdemands": 8489,
      "Ġ1963": 8490,
      "Ġ73": 8491,
      "Ġcontroversy": 8492,
      "ĠCD": 8493,
      "Ġreconc": 8494,
      "Ġreaching": 8495,
      "91": 8496,
      "Ġhit": 8497,
      "Ġcultural": 8498,
      "Ġvacate": 8499,
      "ANDS": 8500,
      "Ġsubstitute": 8501,
      "ĠAmericans": 8502,
      "Ġdescribe": 8503,
      "ĠHighway": 8504,
      "ifteen": 8505,
      "ĠEXHI": 8506,
      "1996": 8507,
      "ĠSTOCKHOLD": 8508,
      "Ġpray": 8509,
      "Ġmistake": 8510,
      "Ġshopping": 8511,
      "Ġspring": 8512,
      "po": 8513,
      "PR": 8514,
      "Ġlimiting": 8515,
      "ĠWay": 8516,
      "Ġventures": 8517,
      "haust": 8518,
      "ĠStar": 8519,
      "Ġconcentration": 8520,
      "120": 8521,
      "Ġbases": 8522,
      "Ġcontended": 8523,
      "ĠHay": 8524,
      "Ġmig": 8525,
      "ISSION": 8526,
      "Ġguidance": 8527,
      "2000": 8528,
      "Ġframework": 8529,
      "Ġexperiences": 8530,
      "ĠAbout": 8531,
      "Ġinject": 8532,
      "Code": 8533,
      "Ġbaby": 8534,
      "Ġrain": 8535,
      "Ġdrove": 8536,
      "Ġdeciding": 8537,
      "ounted": 8538,
      "ĠTrial": 8539,
      "Ġcontinuous": 8540,
      "five": 8541,
      "thur": 8542,
      "mosp": 8543,
      "Ġshift": 8544,
      "ball": 8545,
      "ective": 8546,
      "Ġsuffer": 8547,
      "ropolitan": 8548,
      "Ġconspir": 8549,
      "ĠLyn": 8550,
      "tes": 8551,
      "ĠPolice": 8552,
      "Ġwatch": 8553,
      "licable": 8554,
      "Ġearning": 8555,
      "ĠCASH": 8556,
      "Ġemphasis": 8557,
      "ĠHistory": 8558,
      "ĠDefense": 8559,
      "sale": 8560,
      "ĠHoward": 8561,
      "Ġreflecting": 8562,
      "ĠAutom": 8563,
      "ĠMorgan": 8564,
      "emiconduct": 8565,
      "Ġrepaid": 8566,
      "Ġpsychiat": 8567,
      "1973": 8568,
      "Ġgenuine": 8569,
      "elly": 8570,
      "Ġusage": 8571,
      "ĠCOMMON": 8572,
      "ĠSA": 8573,
      "ume": 8574,
      "owners": 8575,
      "Ġwelfare": 8576,
      "aped": 8577,
      "1994": 8578,
      "Ġsch": 8579,
      "Ġcopies": 8580,
      "Ġbacteria": 8581,
      "ĠLincoln": 8582,
      "Ġproven": 8583,
      "Ġphil": 8584,
      "Ġstrugg": 8585,
      "Ġadjacent": 8586,
      "oration": 8587,
      "Ky": 8588,
      "Ġinterm": 8589,
      "eces": 8590,
      "Ġegg": 8591,
      "ALL": 8592,
      "Ġactively": 8593,
      "Ġdiagnosis": 8594,
      "ĠFe": 8595,
      "Ġmarketed": 8596,
      "posed": 8597,
      "Ġescrow": 8598,
      "Ġoccurring": 8599,
      "ĠJesus": 8600,
      "Ġleads": 8601,
      "Ġ1967": 8602,
      "Ġbegins": 8603,
      "Ġpurported": 8604,
      "Ġquotation": 8605,
      "ĠInvent": 8606,
      "ORE": 8607,
      "Ġvirus": 8608,
      "ĠEngineering": 8609,
      "Ġmedicine": 8610,
      "Ġjustified": 8611,
      "ĠOnly": 8612,
      "Ġprint": 8613,
      "Ġworker": 8614,
      "Ġgenetic": 8615,
      "EE": 8616,
      "OTE": 8617,
      "Ġscen": 8618,
      "ĠCONDITION": 8619,
      "rad": 8620,
      "As": 8621,
      "PT": 8622,
      "Ġpertaining": 8623,
      "Ġflat": 8624,
      "Ġyouth": 8625,
      "pth": 8626,
      "BIT": 8627,
      "ĠLicense": 8628,
      "ĠFROM": 8629,
      "ĠChemical": 8630,
      "otics": 8631,
      "ITIES": 8632,
      "Ġvenue": 8633,
      "ĠGar": 8634,
      "Ġmanagers": 8635,
      "Ġconcurrent": 8636,
      "inese": 8637,
      "Ġfruit": 8638,
      "Ġmap": 8639,
      "Ġcompensatory": 8640,
      "Ġtradition": 8641,
      "vate": 8642,
      "Ġwindow": 8643,
      "Ġblue": 8644,
      "Ġdrop": 8645,
      "ht": 8646,
      "Ġunrelated": 8647,
      "Ġperce": 8648,
      "Ġreads": 8649,
      "Ġmouth": 8650,
      "hetic": 8651,
      "Ġpersonally": 8652,
      "ĠPeriod": 8653,
      "Ġmature": 8654,
      "Ġlacked": 8655,
      "Ġnegotiated": 8656,
      "INGS": 8657,
      "Ġreliability": 8658,
      "Ġcomplaints": 8659,
      "Ġ+": 8660,
      "Ġexplore": 8661,
      "Ġleverage": 8662,
      "Ġenactment": 8663,
      "ĠAnch": 8664,
      "Ġcontinuance": 8665,
      "Ġshape": 8666,
      "Ġincorrect": 8667,
      "ĠPlans": 8668,
      "ĠPeter": 8669,
      "Ġkeeping": 8670,
      "med": 8671,
      "ULES": 8672,
      "Ġfacilitate": 8673,
      "untary": 8674,
      "Ġpostretirement": 8675,
      "Ġlawsuits": 8676,
      "Ġmale": 8677,
      "ĠValue": 8678,
      "omic": 8679,
      "Ġexactly": 8680,
      "Ġterritory": 8681,
      "Ġfiduciary": 8682,
      "prof": 8683,
      "Ġindirectly": 8684,
      "ĠFORM": 8685,
      "anish": 8686,
      "Sec": 8687,
      "ĠOrd": 8688,
      "such": 8689,
      "employment": 8690,
      "Ġrevised": 8691,
      "Ġconvenience": 8692,
      "Ġdilig": 8693,
      "Ġeating": 8694,
      "ancel": 8695,
      "Ġalimony": 8696,
      "ERV": 8697,
      "ademic": 8698,
      "ĠSk": 8699,
      "ĠUK": 8700,
      "ITED": 8701,
      "Ġeveryone": 8702,
      "Ġswap": 8703,
      "Ġpossibly": 8704,
      "Ġdefines": 8705,
      "ĠProb": 8706,
      "Ġsomewhat": 8707,
      "Ġincarc": 8708,
      "ĠLine": 8709,
      "Ġwaters": 8710,
      "Ġsort": 8711,
      "110": 8712,
      "Ġ180": 8713,
      "ĠMerc": 8714,
      "1991": 8715,
      "bre": 8716,
      "ught": 8717,
      "IFIC": 8718,
      "Ġjointly": 8719,
      "Ġcollision": 8720,
      "Iowa": 8721,
      "Ġadministered": 8722,
      "Ġbodily": 8723,
      "Ġconsecutive": 8724,
      "Ġvision": 8725,
      "Ġstim": 8726,
      "ĠCast": 8727,
      "ĠSM": 8728,
      "ĠAuto": 8729,
      "Ġspecialized": 8730,
      "ostic": 8731,
      "OLL": 8732,
      "OUSANDS": 8733,
      "ighted": 8734,
      "Ġdiabetes": 8735,
      "Ġprofessionals": 8736,
      "Colo": 8737,
      "anes": 8738,
      "Ġcollege": 8739,
      "ĠCy": 8740,
      "ĠBlue": 8741,
      "Ġrecognizes": 8742,
      "Ġpriority": 8743,
      "Ġchart": 8744,
      "ĠPage": 8745,
      "author": 8746,
      "ĠDebentures": 8747,
      "1972": 8748,
      "Ġstarting": 8749,
      "ĠEastern": 8750,
      "ĠTor": 8751,
      "ĠFlows": 8752,
      "FS": 8753,
      "Ġduration": 8754,
      "load": 8755,
      "Ġpi": 8756,
      "Ġmisd": 8757,
      "Ġbone": 8758,
      "rier": 8759,
      "ĠBow": 8760,
      "Ġdealers": 8761,
      "Ġbills": 8762,
      "Ġasserting": 8763,
      "1992": 8764,
      "sed": 8765,
      "ĠGal": 8766,
      "Ġdisposed": 8767,
      "ĠER": 8768,
      "Ġcites": 8769,
      "ĠAB": 8770,
      "ĠNelson": 8771,
      "Ġmans": 8772,
      "1989": 8773,
      "ĠGiven": 8774,
      "Ġdedicated": 8775,
      "âĢĿ.": 8776,
      "ĠPharm": 8777,
      "Ġresponsibilities": 8778,
      "ĠChange": 8779,
      "Ġseat": 8780,
      "ĠInstruments": 8781,
      "Ġborrowed": 8782,
      "ĠAdd": 8783,
      "ĠCS": 8784,
      "Ġdial": 8785,
      "Ġsurre": 8786,
      "backed": 8787,
      "Ġapplicant": 8788,
      "family": 8789,
      "---": 8790,
      "Ġindeed": 8791,
      "Ġvisitation": 8792,
      "Ġbranches": 8793,
      "ĠSeveral": 8794,
      "Ġfifteen": 8795,
      "Ġunknown": 8796,
      "Ġvarying": 8797,
      "irmed": 8798,
      "isted": 8799,
      "Ġtypical": 8800,
      "Ġcele": 8801,
      "ĠPolicy": 8802,
      "Ġconsiderable": 8803,
      "Ġhope": 8804,
      "vol": 8805,
      "Ġaddressing": 8806,
      "ĠAngeles": 8807,
      "ifty": 8808,
      "rif": 8809,
      "Ġoccasions": 8810,
      "1990": 8811,
      "Ġcomputing": 8812,
      "Ġawareness": 8813,
      "iliation": 8814,
      "ĠEXECU": 8815,
      "Ġfurnish": 8816,
      "Ġacre": 8817,
      "Ġfashion": 8818,
      "Ġsanction": 8819,
      "Ġextract": 8820,
      "Ġutilizing": 8821,
      "Ġrot": 8822,
      "Ġupheld": 8823,
      "oppel": 8824,
      "was": 8825,
      "Ġstab": 8826,
      "Ġcolon": 8827,
      "Ġfraudul": 8828,
      "Ġarises": 8829,
      "Ġexhaust": 8830,
      "Ġfurniture": 8831,
      "ĠGil": 8832,
      "Ġsubcontract": 8833,
      "ĠMatters": 8834,
      "rence": 8835,
      "Ġassembly": 8836,
      "Ġresc": 8837,
      "Ġlock": 8838,
      "Ġprohibits": 8839,
      "ĠPractice": 8840,
      "Ġdiscounted": 8841,
      "Ġwage": 8842,
      "ĠPE": 8843,
      "rates": 8844,
      "rient": 8845,
      "Ġgoverned": 8846,
      "Ġreform": 8847,
      "estion": 8848,
      "Ġcontrad": 8849,
      "Ġlit": 8850,
      "ĠRO": 8851,
      "Ġseasonal": 8852,
      "ĠLow": 8853,
      "ĠTime": 8854,
      "Ġindication": 8855,
      "Ġbacklog": 8856,
      "ĠBENEF": 8857,
      "Ġsimilarly": 8858,
      "Ġconfirmed": 8859,
      "irt": 8860,
      "ĠNav": 8861,
      "Ġdistribute": 8862,
      "Ġprobability": 8863,
      "xygen": 8864,
      "ĠCite": 8865,
      "eat": 8866,
      "chell": 8867,
      "Ġaffects": 8868,
      "Ġ107": 8869,
      "Ġquantities": 8870,
      "Ġapprovals": 8871,
      "ĠWithout": 8872,
      "Ġcovenant": 8873,
      "Ġoccupied": 8874,
      "Ġgovernments": 8875,
      "she": 8876,
      "rome": 8877,
      "Ġpackaging": 8878,
      "Ġroyalties": 8879,
      "Ġshif": 8880,
      "ĠDesign": 8881,
      "ĠFoundation": 8882,
      "arner": 8883,
      "ĠGovernor": 8884,
      "ĠSer": 8885,
      "1988": 8886,
      "lets": 8887,
      "Ġsister": 8888,
      "Ġ105": 8889,
      "Ġenfor": 8890,
      "hemat": 8891,
      "Ġseller": 8892,
      "ĠNevertheless": 8893,
      "Ġvig": 8894,
      "Ġtouch": 8895,
      "Ġ1965": 8896,
      "ĠDig": 8897,
      "Ġcommand": 8898,
      "Ġinterim": 8899,
      "ĠMult": 8900,
      "ĠRece": 8901,
      "Ġmillions": 8902,
      "ĠTHOUSANDS": 8903,
      "Ġnin": 8904,
      "Ġunex": 8905,
      "Ġpure": 8906,
      "Ġfreedom": 8907,
      "ĠPhys": 8908,
      "ĠSC": 8909,
      "ĠLoss": 8910,
      "ĠSteel": 8911,
      "Ġau": 8912,
      "Ġevening": 8913,
      "Ġpretrial": 8914,
      "Ġmessage": 8915,
      "shore": 8916,
      "Ġconsequence": 8917,
      "point": 8918,
      "ĠSoftware": 8919,
      "ĠChinese": 8920,
      "Ġraises": 8921,
      "olds": 8922,
      "Ġteeth": 8923,
      "ĠClub": 8924,
      "Ġpowerful": 8925,
      "ement": 8926,
      "Ġmandate": 8927,
      "ĠIC": 8928,
      "Ġbeneficiary": 8929,
      "Ġmeasurement": 8930,
      "Ġrecommendations": 8931,
      "Ġnovel": 8932,
      "cons": 8933,
      "Ġsufficiency": 8934,
      "body": 8935,
      "Ġimpacted": 8936,
      "ĠYEARS": 8937,
      "ĠBurn": 8938,
      "ĠSett": 8939,
      "bel": 8940,
      "Ġviolates": 8941,
      "ĠRevolving": 8942,
      "Ġcovers": 8943,
      "Ġgene": 8944,
      "Ġmeetings": 8945,
      "ĠArticles": 8946,
      "lahoma": 8947,
      "Ġdischarged": 8948,
      "Ġintercompany": 8949,
      "tery": 8950,
      "Ġchem": 8951,
      "Ġdict": 8952,
      "foot": 8953,
      "Ġdrinking": 8954,
      "VER": 8955,
      "Ġreferences": 8956,
      "Ġgather": 8957,
      "ĠSubsidiary": 8958,
      "1998": 8959,
      "Ġimpe": 8960,
      "Ġvaluable": 8961,
      "defendant": 8962,
      "Ġresistance": 8963,
      "IFICANT": 8964,
      "Ġcredited": 8965,
      "Ġtit": 8966,
      "inity": 8967,
      "Ġtargeted": 8968,
      "elihood": 8969,
      "oenix": 8970,
      "MO": 8971,
      "ĠAgain": 8972,
      "ĠHou": 8973,
      "ĠTaxes": 8974,
      "ds": 8975,
      "ighth": 8976,
      "Ġsuccessor": 8977,
      "pons": 8978,
      "collectively": 8979,
      "eterm": 8980,
      "Ġdecreases": 8981,
      "alog": 8982,
      "uct": 8983,
      "Ġphilos": 8984,
      "Ġpetitions": 8985,
      "ĠSIGNIFICANT": 8986,
      "Ġfunctional": 8987,
      "Ġdefinite": 8988,
      "ĠPhillips": 8989,
      "Ġsla": 8990,
      "Ġknowing": 8991,
      "ilton": 8992,
      "ĠEXECUTIVE": 8993,
      "ĠCarl": 8994,
      "ĠEvery": 8995,
      "best": 8996,
      "ificance": 8997,
      "ĠBureau": 8998,
      "Ġyourself": 8999,
      "Ġcompeting": 9000,
      "Ġsave": 9001,
      "Ġroof": 9002,
      "Ġarbitrary": 9003,
      "otyp": 9004,
      "gers": 9005,
      "phy": 9006,
      "ĠRose": 9007,
      "bu": 9008,
      "cies": 9009,
      "Ġrepeatedly": 9010,
      "ĠMarsh": 9011,
      "UT": 9012,
      "Ġinput": 9013,
      "Ġsheriff": 9014,
      "Ġindependently": 9015,
      "licts": 9016,
      "ĠManufacturing": 9017,
      "ĠRestatement": 9018,
      "ĠParty": 9019,
      "Ġvirtue": 9020,
      "Ġconspiracy": 9021,
      "Ġsignature": 9022,
      "Ġregulate": 9023,
      "ĠInvestors": 9024,
      "affiliated": 9025,
      "eh": 9026,
      "Ġtoxic": 9027,
      ".(": 9028,
      "Ġpal": 9029,
      "Ġdental": 9030,
      "Ġaddresses": 9031,
      "Ġdefenses": 9032,
      "levant": 9033,
      "ictionary": 9034,
      "Ġrecoverable": 9035,
      "Ġrulings": 9036,
      "ĠLIBOR": 9037,
      "oo": 9038,
      "Ġchecks": 9039,
      "THER": 9040,
      "ĠConsid": 9041,
      "Ġ104": 9042,
      "licated": 9043,
      "Ġcharging": 9044,
      "ĠBaker": 9045,
      "ĠStew": 9046,
      "Ġchronic": 9047,
      "Ġspecifications": 9048,
      "Ġtangible": 9049,
      "ĠâĢĿ": 9050,
      "Ġnursing": 9051,
      "Ġsurve": 9052,
      "Ġcrucial": 9053,
      "Ġsector": 9054,
      "Minn": 9055,
      "Ġstream": 9056,
      "ĠIncluded": 9057,
      "ĠOklahoma": 9058,
      "disc": 9059,
      "Ġemail": 9060,
      "Ġaver": 9061,
      "Ar": 9062,
      "iant": 9063,
      "ivities": 9064,
      "ĠClerk": 9065,
      "Ġabandoned": 9066,
      "ĠHaving": 9067,
      "Ġpays": 9068,
      "rows": 9069,
[...]
